F8
FF
04
F7
F8
FF
02
03
01
F9
0A
FC
FA
03
06
FE
08
06
FB
FC
F8
07
04
00
F9
FF
FE
09
F8
08
FB
03
06
F8
08
07
FE
F9
FF
04
01
05
FD
08
06
FF
06
07
03
01
00
FE
F9
06
09
F8
05
05
07
FF
07
F7
F9
07
FC
F9
02
FC
FE
F7
07
06
FD
06
FA
01
FE
08
04
03
F9
06
06
01
04
FC
05
00
FE
FE
F7
F9
F9
FD
FC
09
08
FD
06
FD
05
07
FE
03
07
04
09
05
FC
FA
FA
FB
01
03
F7
02
FE
04
FC
02
05
00
F9
F9
FF
FA
07
FE
03
08
F8
05
07
FF
FA
FA
FF
00
04
FF
01
01
FD
09
FB
08
F7
07
02
F8
07
F6
03
FB
03
07
05
00
07
F7
00
F9
01
04
FD
01
07
FC
F8
02
F9
00
00
FD
08
F9
FA
F9
04
FE
01
09
08
FD
08
F9
FF
F7
FD
08
F9
04
FD
0A
03
F9
FA
06
02
FC
FE
FE
F9
FA
F8
F7
03
FC
08
FB
FC
08
FB
00
06
04
F9
FD
08
F8
02
FF
02
09
02
02
F7
F8
02
FB
FB
08
08
F8
FA
FD
08
07
04
FB
04
04
0A
04
FE
03
03
FE
05
02
FB
02
01
FE
00
02
05
F9
FC
FA
07
FC
09
02
F9
FD
FB
01
FD
04
06
FF
02
09
00
F9
FA
07
05
03
01
FE
00
FE
F9
03
00
FB
04
FE
06
04
FF
08
01
F8
06
06
F7
05
09
04
08
00
09
05
FF
04
00
03
00
FD
F9
09
05
FA
F7
F9
F8
FB
00
01
03
01
FC
08
01
FF
05
FD
00
FB
06
09
FC
FF
FC
FE
08
FD
F8
FA
F7
F8
07
09
05
04
FE
02
FF
07
04
FB
FE
FB
07
FC
04
F7
F9
09
03
F8
03
F6
F8
03
F9
00
09
F8
05
FA
FB
01
01
FC
08
02
FB
F8
07
F9
09
F9
06
FF
07
FD
00
08
04
FC
00
07
FD
02
FA
09
05
FE
09
08
09
FB
07
06
08
06
FA
FA
08
03
00
07
06
FF
F7
FC
F8
09
01
FE
03
08
02
FA
FF
08
FC
FA
05
FE
03
09
00
09
07
FF
FF
F8
FF
06
04
03
08
06
01
05
07
01
05
09
01
09
FA
06
04
F7
FC
FB
FB
FF
F8
FB
01
00
FB
FD
07
07
03
F9
FE
F7
05
F9
08
FA
03
FE
04
FC
08
01
08
F7
F6
FD
FA
05
03
02
F7
09
04
FC
02
FF
06
FA
F8
F9
F9
03
05
FE
02
F9
07
08
FC
02
F8
01
00
07
05
FA
03
00
FD
06
08
09
01
04
FB
06
FB
09
03
04
06
03
07
FF
06
F9
0A
06
FE
07
02
07
FF
F9
F7
04
09
F8
01
02
FC
05
F8
F9
04
07
09
FD
06
00
02
07
F7
08
F9
06
FC
04
06
0A
09
08
FC
F9
FD
F9
05
03
06
05
F8
05
04
F9
04
F7
09
F7
FD
FD
08
FF
FB
09
08
06
03
FF
08
02
FF
01
FA
04
04
02
02
FB
01
FB
FE
06
02
06
07
03
02
FB
04
FD
02
05
09
03
FD
FF
00
FF
FB
09
09
FF
07
04
FA
02
F9
FF
05
FB
05
01
09
04
06
02
06
00
FB
06
02
F9
F9
FB
08
F8
02
FD
01
01
FC
FB
00
FE
FA
FE
08
F6
FD
08
FD
F7
09
06
FF
FB
F9
FA
02
F9
07
FE
F7
F8
FC
08
FF
F6
FD
07
FC
F8
06
03
09
08
FF
F9
03
FE
00
07
06
FE
03
06
FE
06
03
03
06
00
FC
09
01
F9
02
FE
FD
F6
02
FC
09
03
FE
03
FB
FE
FB
00
FE
06
FD
06
03
07
02
07
08
FB
FE
FA
FA
FE
FB
04
F7
02
07
F9
02
05
04
08
06
05
05
07
FB
FB
04
04
FD
F7
04
08
00
F5
0A
FC
F8
F7
FD
04
09
01
FC
03
07
F6
0A
F7
03
0B
05
03
FD
FE
FC
02
F7
0B
02
05
F8
F8
F8
FF
01
00
04
09
05
FA
FB
0C
03
03
07
FA
F9
0A
FF
07
0A
03
01
FD
04
03
02
F5
03
F4
00
0B
0B
03
02
03
05
F5
09
FF
FA
03
FD
F4
07
FF
04
07
05
F3
0A
08
F8
04
F5
0A
07
05
05
05
02
08
0A
0E
F3
FB
06
08
FE
08
F6
03
00
03
02
F5
FF
FC
F5
05
06
0D
0B
0C
0B
0C
01
FC
08
03
04
07
06
02
F6
09
02
0C
FB
0A
08
07
12
07
07
07
01
01
FF
09
F9
08
FF
FB
08
06
02
F5
02
0D
FC
02
0F
00
02
01
05
FE
02
FC
04
FB
07
FA
F8
FA
FE
0F
00
FD
F5
FF
FC
01
FD
FF
FE
04
F3
0A
F7
02
06
0B
FD
F9
FE
07
0C
F6
F1
0C
FC
08
F9
01
0C
02
06
FD
04
05
FA
09
FA
FB
00
FB
06
FA
06
F9
07
09
06
FB
06
FC
FF
FF
06
0A
FE
FC
01
01
04
08
00
01
08
00
05
03
FA
01
F9
05
FF
FE
FA
03
F7
01
FD
03
FF
FA
FF
F8
F6
0A
01
03
FE
00
06
04
08
FF
F7
08
FD
FE
09
FC
00
04
04
FF
05
01
05
FC
FC
05
02
FE
01
06
FD
FA
FB
FD
FB
0A
04
FC
07
FC
01
00
FF
00
FE
08
F7
08
FC
07
01
F8
FD
08
01
FE
07
FE
06
F7
FF
08
FE
05
F7
07
06
00
04
07
F7
FF
03
01
05
04
FD
06
09
01
03
F8
F7
01
FA
FB
03
02
05
03
00
FF
FC
00
FC
FB
07
F6
05
07
00
08
FB
FD
FA
06
F8
01
07
FC
FC
00
09
FC
03
08
FD
07
F8
02
06
F7
05
03
02
01
00
F9
00
00
02
01
07
06
F9
04
FE
00
08
0A
00
FF
02
FD
03
01
02
06
02
03
05
05
F7
02
FE
04
06
01
09
F8
06
F6
FE
06
FD
01
04
F7
00
02
F6
04
03
FB
08
08
01
FC
F8
F9
01
07
FF
07
02
01
F9
FD
06
FF
01
00
FB
06
03
FC
08
F7
F9
07
FB
04
04
FE
F9
03
04
03
06
04
02
FE
FD
01
09
F8
F9
FC
04
F8
FA
F8
00
02
00
FB
FE
FB
F7
FF
FE
F8
02
F9
F7
FB
FF
08
F8
FD
FB
FB
FC
06
03
F7
F8
00
0A
09
04
F9
05
FC
FC
FC
FD
F8
08
FC
00
01
F7
08
00
FE
F8
0A
04
03
03
08
FF
07
F7
FA
F9
07
FD
FE
F8
05
08
07
01
00
05
06
04
FF
FF
FA
FE
06
F9
FF
09
FD
02
F6
08
08
05
FF
01
F8
FF
02
09
07
0A
02
01
04
FC
04
03
02
F7
FF
FF
09
00
F6
F9
02
FF
09
08
00
02
09
FC
F7
FD
00
09
F9
08
FE
F9
F9
F7
07
07
02
08
04
FF
FA
F7
00
00
09
FD
FC
08
FD
02
FB
FE
06
06
03
F8
09
08
02
06
F9
FD
F7
FF
08
07
FD
07
01
FD
FE
09
03
FC
07
05
08
F7
09
FB
FE
FD
07
06
01
04
FE
01
06
03
08
05
03
FF
04
FB
09
09
09
02
FA
F7
07
03
08
F9
03
00
FC
04
01
F9
05
FE
FF
FC
00
05
F9
08
F8
05
02
03
FA
F8
04
FA
03
06
05
07
FE
00
FB
F9
F9
F8
00
08
FC
F8
04
09
03
F7
05
FB
FE
06
05
FC
04
FA
08
08
F8
09
FA
F7
F7
FC
04
F8
FF
07
F9
F9
F8
FF
FA
09
08
03
F8
FE
FA
FF
FA
FF
00
09
06
FD
05
FB
FD
F8
06
F8
FF
05
08
08
08
08
FE
0A
F7
05
FE
06
02
01
00
F9
06
04
F7
06
FD
01
FB
FD
01
F9
03
09
02
F8
FF
03
F7
FD
FF
FD
02
01
09
01
F7
08
F7
F8
00
08
06
F9
03
FB
FD
FE
07
02
04
08
F9
02
FB
FA
05
FA
FF
F7
04
07
FC
03
FD
F8
FF
FF
F9
02
FE
08
FE
F7
04
00
02
FF
F7
07
00
FC
F9
00
FF
07
FA
05
FF
06
00
F8
FC
F6
09
FB
FC
FF
F8
05
02
FD
05
04
00
03
F9
F7
05
FA
FC
08
08
FA
06
07
02
FA
FD
03
FF
F9
04
00
07
F8
07
FF
FD
FC
FE
03
09
FB
04
08
F8
FE
04
FA
FD
F8
F8
09
F7
F9
FC
06
07
FA
05
FD
FB
06
08
FF
FC
09
07
F9
07
02
02
FF
00
F7
04
FE
0A
FE
FE
F8
03
FC
01
07
05
04
03
06
04
F8
FF
00
09
FB
07
FA
FC
F7
00
03
F8
F8
09
07
00
00
09
03
08
FE
04
FB
08
FB
02
F8
FA
FA
FF
04
FB
F9
FA
06
06
FE
FB
F8
03
05
FD
01
FE
FA
08
F9
08
FB
00
F7
FD
03
FD
FC
00
07
07
F8
0A
05
06
FE
04
FF
02
FA
05
F7
04
01
FA
06
F7
F9
02
07
01
F9
FF
FE
05
01
02
FC
02
00
04
04
FC
05
04
07
F9
F7
01
F6
0A
F8
04
03
FA
F8
F7
09
FE
FF
00
FB
F8
FD
FE
FD
00
04
FD
FC
FC
FD
F8
03
F6
F8
FE
05
FC
05
00
05
05
00
07
FD
FF
F8
06
00
08
F9
FF
FC
08
05
00
05
FC
FD
FA
FF
FC
07
02
06
F9
FB
01
F8
02
06
02
04
FD
05
07
FA
F9
F9
FB
FE
02
05
04
FC
03
05
FC
F9
01
FC
06
05
09
05
02
FA
01
FD
03
F8
FC
FE
01
06
06
09
FA
09
FB
03
08
08
05
06
07
F9
03
FC
FC
F7
04
04
01
FA
FE
05
FC
08
04
FA
09
06
01
02
FB
07
FE
0A
08
08
F8
07
F7
09
FF
05
FC
04
02
05
FE
FF
08
FB
FB
FA
FC
FE
09
0A
FC
F8
FC
09
08
06
F9
FB
FF
FD
06
F8
07
03
FD
FB
02
02
03
FC
01
04
F7
FD
FE
06
FB
FA
F8
01
00
09
01
FB
F8
00
FB
00
F9
FA
FE
FF
08
04
FB
F7
00
06
FE
03
03
F8
03
F6
F7
09
00
08
F9
FF
FB
FE
05
FF
FA
F8
FC
FD
02
FB
08
FF
FF
08
03
00
F8
FE
FA
FC
05
FF
F6
03
FD
FD
F7
04
F8
00
F7
03
F8
FB
09
00
F9
00
F9
F9
FA
FE
F8
09
F9
08
FB
FD
04
05
F8
F9
F8
03
05
FB
F9
FC
F7
F7
F9
09
0A
F7
FD
FC
06
00
06
04
FF
FC
FD
FE
02
FD
00
FE
06
F6
FB
FD
05
F8
05
F9
04
FC
05
04
F7
0A
07
09
02
FA
05
06
FC
06
07
02
FE
FD
FE
FD
F7
08
01
F6
06
FD
00
07
FB
FD
00
FE
08
00
03
F7
01
08
07
01
FF
09
09
F8
01
F8
01
FC
F6
04
06
08
02
04
FC
FC
FB
02
FC
FC
03
07
09
01
FF
FE
FC
07
FA
08
FA
06
FC
FF
FB
02
FC
FD
05
FE
0A
F5
01
01
FA
08
FB
FC
03
0B
01
FE
05
F9
FC
FB
F8
FD
06
FD
03
FA
03
17
01
F8
FE
00
03
01
05
F0
F7
02
02
09
07
FC
F9
10
01
FA
0C
FF
08
F9
F9
01
07
0E
FA
0F
03
FD
F9
01
04
0F
F1
F2
0B
FF
FC
F6
04
F1
FB
0E
00
04
F5
05
00
03
FD
FC
FF
FD
F8
07
FD
F2
0C
FA
F6
FE
02
18
0D
06
07
0A
0C
FF
00
F7
FE
F5
02
F3
02
FD
06
FF
F9
01
12
FF
0B
05
06
FC
10
00
0B
0E
FA
FC
00
FD
09
0B
EE
F6
10
10
00
05
10
F6
0A
01
EE
03
F2
F7
F3
0B
FF
FA
FF
ED
FD
00
F5
FE
06
F1
00
FF
0F
07
0B
0A
03
0B
06
F1
FE
FA
0E
FC
0C
FD
05
F5
F2
10
01
FF
0B
FE
13
F7
04
01
0A
0A
04
0D
0E
00
F8
09
F7
00
F2
FC
0B
0F
04
F9
15
F3
13
13
E8
0A
F5
FE
00
0F
EE
F4
F9
F2
03
FC
05
F4
0A
F5
09
01
13
12
14
F9
19
03
13
F6
12
F9
0B
00
03
F5
17
EF
03
14
11
F5
11
FD
0F
FC
0D
01
05
14
0B
0C
00
03
F1
FE
F6
01
FD
F0
07
0B
10
EE
1A
FC
F6
1A
F3
0C
F3
FE
F4
15
FC
EB
F9
FA
FC
04
F8
FD
FF
08
E8
FF
1D
0F
FA
01
0F
FF
12
ED
00
F7
11
01
03
EA
15
F3
ED
15
01
E4
10
F8
0B
04
0C
08
22
0F
03
12
09
14
E6
FC
F9
07
F0
EB
1D
0A
10
F9
16
03
02
1D
FF
0F
FD
06
F0
10
FB
F5
F9
E6
03
0A
F6
04
F9
0B
EE
FA
1E
09
0C
FC
0B
F7
0E
F2
01
FC
09
0E
06
F1
F9
F3
EE
14
F3
E9
0F
F8
07
F7
14
FD
04
08
02
10
03
03
ED
EF
04
07
F6
EF
13
13
10
F8
18
F4
FC
1A
F3
0D
EE
0A
E9
10
F5
E8
FB
EA
01
F9
05
F9
04
FC
FC
F2
17
0B
1D
FD
18
F3
FE
FA
11
F6
14
12
04
EB
11
ED
E9
25
FC
F0
1E
FC
02
01
15
0F
10
09
04
17
FE
14
ED
ED
F9
1A
FD
EF
0F
1D
1A
05
0C
EE
FC
0D
E3
1B
E8
0F
EF
17
F3
D9
01
E0
F9
F7
F8
EC
03
02
EB
F0
20
0C
17
FE
22
F0
02
F9
03
E8
1C
0A
06
EE
0F
F9
F7
20
0D
E1
1C
07
01
FD
07
06
03
0B
FB
0E
FC
21
E6
F4
F3
1B
F0
E8
1B
17
14
09
00
FE
FA
F4
01
FF
03
F1
0B
0C
FC
DE
FD
EB
03
F3
08
FB
0E
01
0C
FF
02
F8
08
06
FE
01
F2
06
F9
F1
0F
0E
F9
0F
03
FE
FE
01
00
FB
F0
01
0C
F9
11
F7
F1
F9
F7
13
FA
13
F8
EB
00
FF
0F
FE
04
F4
00
1D
21
FE
16
13
ED
03
E5
FD
ED
2A
F6
ED
FC
DE
13
ED
12
E3
FB
F8
0A
0B
13
EF
22
FC
06
00
EE
EF
13
F4
F6
0A
11
05
F6
F3
EC
1B
F5
04
13
E1
08
FE
0C
FF
EF
23
F7
FF
FB
26
EA
F9
FC
FC
FA
F1
05
F2
13
0C
20
FC
0E
21
FA
05
E5
FC
F3
1D
E4
E5
FD
F6
0F
EC
01
F4
F2
04
F8
FE
0D
F9
24
02
09
14
FD
F4
09
F8
F3
F3
04
E9
F9
E0
03
0D
F1
F6
0A
ED
1F
FA
1B
FE
FD
17
FF
F0
04
13
F5
02
EC
01
FB
EE
06
FF
29
0C
10
F9
03
22
EE
06
ED
04
F3
24
EC
E4
0C
F5
FA
FA
E6
F9
EC
09
F4
FE
0E
FE
2C
FA
18
0F
09
E7
0A
F9
F7
FD
04
E8
F7
F0
F8
0F
FC
F7
11
FD
13
02
15
FE
02
20
12
F9
04
0F
F2
0B
EB
12
EA
EB
16
1A
18
F1
0D
F2
F6
FE
F5
17
EE
F7
EF
12
F2
F2
08
F3
FB
FA
F3
EB
1F
10
E7
FF
0E
1D
17
06
0B
F4
08
EA
1B
FA
16
18
0A
E8
1A
FE
F4
0A
0C
F3
09
05
07
FA
FC
0C
14
11
06
17
FB
14
EF
FA
14
10
F9
EE
0E
10
0D
0A
10
F3
FB
18
E3
19
E8
07
FA
18
04
F3
FE
ED
F8
FD
F3
F2
11
07
FC
F9
0E
16
0A
07
18
FD
09
EB
09
F7
15
0F
1A
EA
0D
F1
F4
15
0D
F3
10
F3
03
00
F7
04
0C
17
FA
13
02
10
F8
F0
09
1A
E7
F5
15
11
1B
01
11
F0
F3
1B
F0
08
EC
FB
E8
17
F7
EC
09
E3
F0
F8
EB
EA
1D
F3
F0
F6
1B
10
0D
06
10
00
14
E8
04
FA
08
0A
13
E1
0D
F4
F9
02
14
01
1A
01
EF
F9
F7
15
12
08
01
1D
FF
14
EF
F4
0F
18
FA
F0
0F
14
18
FF
0F
EE
FC
0E
F8
10
F5
F8
E8
15
03
E8
FA
E5
F1
03
F8
ED
18
FD
F5
04
13
1E
05
00
19
ED
04
FB
0F
FC
0E
08
10
E0
11
ED
00
14
0F
0C
12
F3
02
FA
04
13
06
0B
F4
0D
05
06
FD
ED
09
14
E7
F0
14
0E
08
04
05
FE
02
17
ED
0C
F0
F4
03
11
EF
F5
FB
F3
FA
07
05
F5
12
EF
F1
FE
0D
0E
04
FE
0F
03
05
F5
FB
F5
F2
07
0E
F2
18
EF
F2
13
F5
F3
07
F5
05
00
0A
0A
0D
08
08
0B
02
10
EF
F6
FB
1B
FA
EB
10
0E
0D
06
02
03
0A
12
F1
0B
F2
FB
FB
03
F4
EF
FE
ED
09
FA
02
F6
01
EF
F5
FD
03
14
12
03
06
FD
12
FC
FC
FE
F4
FE
02
00
13
FA
04
06
F2
FB
04
F4
08
FA
01
06
0C
12
00
10
04
0D
F9
08
F9
10
ED
F2
0C
0C
08
02
01
FF
08
01
04
01
F7
FF
03
F8
06
00
08
01
06
02
FB
FE
FA
07
00
04
FC
FD
FD
F8
FC
00
09
F7
09
F7
09
03
06
08
FD
08
FF
FA
F7
09
03
FF
FC
FD
08
07
00
01
F9
FB
04
04
02
FE
FF
08
FA
04
01
08
F7
07
06
FC
F8
04
04
08
FA
06
FD
03
F9
FF
03
03
FE
FB
FD
06
05
02
F9
F7
FF
F7
04
FE
FE
FF
00
03
FA
FD
06
04
FD
03
FB
07
FB
09
00
07
FC
F8
FE
FF
00
FB
05
03
04
F9
FB
09
07
F9
05
FF
F7
03
F7
FC
F9
F8
FA
FE
FD
06
F7
05
F7
05
FF
08
06
02
FC
09
F9
F9
FA
05
FD
FE
FC
01
07
05
01
FF
FF
FA
FB
FD
00
02
00
07
00
04
FE
02
FD
F7
F8
FC
06
00
FD
FE
FA
06
01
F8
FC
FA
06
01
F8
01
05
FE
FC
05
FE
F9
FF
04
06
FF
04
F7
FA
F9
FD
FD
FA
08
FE
F8
03
FF
FD
FB
03
FA
F8
F7
08
03
03
01
FD
FE
FF
FD
F7
FD
01
00
09
08
F8
08
03
F8
FE
02
F8
F8
07
07
F7
07
F8
FB
FF
FA
00
F7
F9
F9
FC
FE
FB
F7
F9
09
F8
F7
06
FA
FE
04
FB
03
FE
05
01
F8
FC
04
09
00
06
F9
09
FA
FD
F9
06
00
05
FC
F8
F7
F9
F8
01
F9
06
FE
F7
F9
FD
FE
FD
09
FF
04
00
06
09
07
01
01
FA
08
FC
FA
05
FC
F9
FC
03
03
FC
FC
F8
FB
FD
04
06
FE
05
09
FF
00
FE
FA
09
F9
01
F7
02
05
F9
02
01
FE
FB
06
F7
01
08
07
05
04
09
06
F8
07
02
09
05
F9
05
02
FF
05
04
FF
02
02
F9
03
08
04
09
08
F9
04
F7
F9
03
F7
07
F9
03
03
05
04
00
06
07
00
01
FF
FF
FC
FC
F5
03
F9
FA
FF
00
02
06
03
09
FF
F8
F8
08
00
FA
FF
FB
F8
06
06
06
09
F9
FD
09
FF
FB
FA
F6
F9
FF
FE
06
FC
01
06
03
0A
08
FD
F9
FA
F9
FD
F7
FB
06
00
F9
07
F7
FD
03
09
06
F8
01
F5
04
02
07
06
0F
FC
0C
13
E2
06
F2
0C
F0
06
F8
FD
FF
FA
0D
F4
FC
EE
14
FC
04
02
17
FD
F5
07
17
04
F9
F5
0E
FB
06
FA
01
05
F5
FA
07
00
FD
FE
11
F1
03
F9
08
04
FD
1B
F8
F4
FA
15
ED
F8
01
0A
02
F2
09
0C
0D
0C
0C
EC
18
1A
ED
12
E4
05
FC
0F
FA
ED
01
F3
0B
FB
F5
F0
09
FF
FE
FC
17
05
0B
02
0C
02
F2
F4
11
FC
08
06
0C
F2
04
F4
EF
19
F3
FC
23
F0
01
06
FE
FB
00
0F
F6
0B
04
0F
EC
FF
08
15
06
EF
0B
15
13
04
0F
F4
FE
18
FC
06
F8
F1
F3
07
02
F7
FD
F5
FD
06
04
FF
FD
08
0B
FD
06
1C
F7
F8
0B
FE
07
F6
05
02
03
F1
08
EE
08
FB
FD
09
F6
F9
06
F4
FC
08
11
FB
07
06
FF
0E
F6
0A
04
01
F8
0B
EB
FB
06
0B
01
F9
0D
F0
F7
16
ED
0B
F7
F7
F0
05
FE
F6
F7
04
06
FE
FE
05
03
FC
08
FE
07
0B
FB
FA
FA
02
0C
F3
0C
F1
08
F9
FE
E9
0C
F3
FE
0B
01
FA
08
FE
01
FD
09
01
09
0F
10
0A
F9
06
EF
FA
08
FA
F8
F8
05
04
0E
02
12
F0
FE
15
F5
FF
F0
04
F7
13
00
EE
F7
F6
0C
02
EB
FE
FF
FA
06
FD
1F
0E
05
07
03
09
0A
F6
0C
F4
0C
EE
0C
E1
09
EF
F0
0B
04
E9
17
FD
02
F0
13
FB
11
0E
03
14
FE
08
EB
F5
F8
0E
EF
F3
02
0D
14
FB
12
ED
07
21
E6
04
E6
01
FA
12
FA
F4
FF
06
F6
01
EC
13
01
00
05
FF
1E
1A
0C
02
07
03
24
E2
0D
E2
FB
FF
06
EF
26
FA
FD
17
04
F7
10
E5
09
F7
08
F3
2A
16
0B
07
06
0B
F0
09
0A
09
F0
F9
0F
0B
18
F7
31
02
05
37
F4
F5
EA
0A
ED
09
F5
E8
02
0C
F0
05
EA
1B
EF
FC
19
03
00
28
F7
F8
E7
09
38
DD
0D
E1
02
00
0D
E7
1A
F2
04
FE
FB
F4
FB
EC
1A
FE
14
F4
31
04
0F
F4
07
F2
EE
0F
E8
F1
E9
06
F7
03
20
E2
29
F6
09
34
E2
12
DD
01
F9
07
EE
E0
FF
08
EF
05
DF
0F
EC
04
05
F7
16
35
E5
EF
F8
12
20
DC
18
EF
0D
F8
01
EC
18
E2
01
03
F8
FF
FD
E9
18
FA
0A
F3
2B
15
05
FA
0D
0C
DB
02
F6
F6
D6
F1
0D
0A
1D
EA
2C
EC
F0
2E
EF
10
D9
0B
EB
17
04
C9
03
FC
E1
FA
EB
0D
02
08
03
F7
24
2D
FA
F5
13
12
23
DF
1F
DE
16
FC
F6
EC
1E
DB
F4
0A
09
FC
03
F3
18
EA
0A
EC
2A
16
F9
0F
01
09
E1
F6
EE
FE
D6
F8
16
15
2A
F9
1D
FA
FA
25
E0
14
E0
07
F2
12
02
DA
07
F5
FA
11
EB
0B
F9
FC
12
FB
0F
2C
09
F2
11
0D
11
EB
24
C9
17
F3
F5
FB
18
E8
FE
FF
FB
0B
F3
E0
1F
EE
0C
F8
22
16
0A
12
F4
FF
E0
FF
E0
FA
D6
E1
0D
02
20
FC
1E
F7
13
00
FC
EC
EB
EE
FA
10
F3
DF
FD
E8
F4
FE
04
03
FA
05
11
F3
08
20
11
F5
0C
0D
EF
E2
18
D4
17
F7
E0
06
0F
E3
F6
15
FA
1E
E9
F9
1F
EB
0F
F7
FD
02
EF
1E
E5
11
E2
02
E8
EB
E8
D4
FD
F4
1A
E6
14
FC
03
0D
FE
E9
F8
CD
FB
20
E2
DF
FC
DF
EC
FA
13
06
FF
03
0F
F9
16
2C
05
F0
0C
11
06
DF
F5
CF
15
FC
E0
08
16
E2
0C
FB
05
17
E6
F5
23
F4
17
EC
12
0F
09
18
DC
16
E9
06
F1
F6
ED
DD
09
F9
1D
F1
31
EE
E6
0B
FE
D8
DF
DC
07
32
E2
E9
F4
E4
F6
F5
13
08
F9
03
12
04
1C
22
0E
F6
10
11
FD
DE
06
D8
19
FD
E6
0F
22
E8
1D
1A
04
0E
EC
FE
22
F4
17
FD
13
14
0A
15
DD
1C
EE
FF
F4
F6
E2
DD
FE
EC
30
ED
24
01
F3
14
06
EA
DC
EC
16
1D
CF
F7
F8
FA
01
F1
15
F9
F0
F4
04
01
0A
12
12
02
0C
FE
01
E6
04
E1
01
FD
12
09
10
DC
1D
10
F4
FE
FD
02
27
FA
15
09
0B
1C
F6
0C
D1
26
DF
03
F9
FA
F6
EE
14
F5
16
F6
24
F5
EF
12
07
00
E4
F6
05
25
DA
07
05
00
E9
F5
04
FA
00
00
ED
07
06
31
12
FC
1B
00
07
E7
00
06
06
F4
F9
06
07
F7
FD
0E
08
03
06
FD
0F
0A
11
0E
05
1F
F5
12
DA
2C
F5
F3
18
F8
FF
FC
10
04
18
FD
2D
FC
EB
05
01
FC
FC
F2
FA
1A
E8
E9
FD
F3
F6
03
F6
02
06
EF
DE
08
01
12
1C
0C
12
09
1E
F0
05
06
08
EA
FC
13
FC
F6
FA
1A
F4
F5
FD
EC
0C
12
09
0F
09
1E
01
07
EC
1A
00
F7
12
FD
FA
F6
10
00
10
E0
27
EA
E6
0A
04
05
EA
02
02
0F
0B
09
FC
EF
E7
F8
FF
FA
08
13
C8
FC
07
07
13
15
1B
F5
09
D8
0F
02
07
0C
18
0D
FA
E6
E7
19
00
F3
02
F0
F6
1B
00
18
F6
1E
FF
12
F4
2A
EE
F3
26
0F
F8
E6
0F
FC
19
E2
23
E8
DA
12
F2
0A
DE
F9
FA
0F
0E
F4
F8
D8
EA
F6
F5
EB
09
1D
E9
F0
09
FF
0D
0F
04
F3
01
D2
0D
04
05
15
20
0C
06
EF
FA
02
05
FD
0A
F0
F8
14
03
10
0E
2C
FE
19
F9
2B
E7
EB
0F
11
F3
F2
17
FC
14
DE
1D
EB
F0
16
F8
12
DC
FD
F4
0E
17
F7
FB
E1
E6
FC
EF
F2
1B
20
EB
FB
0C
07
04
FD
08
04
18
DE
FC
F9
16
15
31
EA
0D
E6
04
FB
06
05
15
FD
FE
07
08
13
11
1F
FF
19
F3
1A
F3
FF
03
1C
E9
EA
1F
18
19
DD
0C
F1
F7
1B
F2
0A
E8
0A
F7
0A
F6
EE
F9
E1
EC
FC
F6
F6
19
11
F2
F2
0C
17
19
03
06
EF
1C
ED
F0
F5
19
17
1F
F2
0E
EE
FC
F8
0B
F8
26
FE
FF
0E
17
0B
0E
1E
F7
1C
F3
24
F6
E6
05
20
EA
EA
25
17
17
ED
1D
F2
05
1F
EF
15
E7
07
01
0A
F3
EA
F7
DB
FF
03
E9
FC
06
F7
00
02
14
1B
0D
FF
FF
F0
1C
DE
EB
E9
12
F3
23
ED
0A
EE
02
07
01
EF
17
F4
0B
FE
0B
FE
0C
1C
05
1F
0A
19
E7
FB
F3
1D
E1
F3
1B
1F
17
F1
0C
0C
07
24
03
0A
F2
FA
F1
02
0B
F1
06
FF
0D
02
F0
01
03
01
11
06
08
1B
FF
04
E9
04
1D
E0
FF
FB
08
FA
1E
F7
FE
EB
01
FF
02
0C
09
F1
09
09
08
F5
15
FD
02
0D
0A
FD
09
08
EF
00
FD
05
13
00
0D
FC
10
05
06
0B
ED
FE
EB
F4
FB
F5
00
F4
FC
0C
06
FD
03
0A
00
FE
F9
02
FD
0E
04
F7
FA
FB
FF
F1
F7
F3
03
00
0D
0B
F8
F3
09
06
12
0F
01
05
FA
06
0F
FA
07
F4
08
02
0A
00
07
10
00
F9
00
03
10
EE
FF
FA
06
03
F7
F8
FF
06
FF
FD
06
FB
FD
FE
FA
F8
06
01
03
06
06
F7
FD
FE
05
FE
09
05
FB
09
FD
02
F9
F8
05
F9
01
01
03
FA
03
FC
FF
06
09
FF
05
03
07
04
01
04
04
04
08
FC
FD
06
FE
FB
FD
F9
08
F7
F7
00
F9
F7
01
FD
08
FC
F8
06
FB
00
F8
F7
09
FA
05
08
09
04
FA
FA
FF
01
05
FF
08
05
FB
09
08
02
F9
05
FF
FE
05
F9
00
09
F7
FE
FB
01
03
08
07
07
08
F9
F8
FF
F8
FF
02
05
FA
03
07
F8
FF
00
06
02
08
09
FB
03
08
01
FF
FF
FF
02
02
05
F9
00
03
05
03
09
04
FC
02
FE
F7
FA
04
FA
07
FC
09
07
FA
09
05
FE
07
08
FB
00
F9
F9
09
FA
08
03
F8
02
FC
FA
FD
F8
06
04
01
03
08
03
03
FD
FB
03
FC
FD
03
FC
01
FB
06
07
FE
FA
05
09
F8
08
08
FC
FC
05
02
03
09
FF
F6
0A
F6
07
09
01
05
01
FF
FF
07
02
00
FB
03
FB
FE
01
FA
06
07
F8
08
FD
FC
05
FF
06
0A
FC
03
FB
01
08
FF
03
FA
04
FF
04
FB
03
05
00
04
F7
05
10
15
06
03
F6
01
F3
F5
F4
0A
03
06
01
05
FA
10
FD
09
ED
14
F9
13
13
F9
E8
F8
0E
F9
17
EC
EF
06
08
F7
13
06
0B
F5
13
14
0F
F2
0B
F7
02
11
06
11
F9
FB
FD
13
03
EF
0C
FE
09
04
F5
00
F7
FD
EE
FA
15
0D
FA
05
1B
E7
03
E6
0F
05
12
F5
EF
FE
FC
08
F6
04
F4
0D
F8
05
08
1C
F3
0E
0F
19
FE
F7
E9
05
F8
04
12
00
15
F0
FA
00
02
F6
FC
06
F7
F8
EE
05
0A
F5
14
01
FB
F9
14
F4
08
F8
11
0C
E9
16
16
06
17
0E
F0
07
0E
EB
00
FC
12
F5
FE
F7
0A
FE
FF
0A
01
E9
13
06
F3
07
F8
FB
FD
12
0A
0D
EF
09
DE
FE
F5
06
F3
00
08
01
EF
FD
07
EE
FF
FA
EC
F1
EF
10
0E
03
21
01
01
00
15
FD
F8
03
0C
00
FD
15
02
FB
EC
13
EB
E5
19
E4
13
F3
03
05
FF
00
EB
09
0E
FD
06
FE
F8
0C
12
F9
0E
0F
21
F7
13
F9
08
FC
FB
1D
F7
02
E2
FD
F9
FC
ED
FD
FF
FE
FD
05
F7
0A
EF
F2
0E
1E
19
00
06
02
FF
00
12
0B
FE
F1
FC
08
05
01
EE
19
F5
E5
24
E9
0A
ED
F9
F4
F6
F4
EC
07
0B
F2
05
E5
F7
09
02
FA
08
10
16
FD
03
ED
1C
08
E5
14
E6
08
E4
F4
F7
F8
E7
06
14
FB
FD
08
F4
25
F3
F8
FA
28
1A
02
12
0A
09
EC
06
F5
E9
F7
EC
13
15
03
FC
0E
F5
E7
1C
E5
07
F0
F6
F4
FD
E8
E5
0E
F2
E8
09
EF
F7
10
F9
F3
F5
07
16
FF
01
FB
14
FF
FD
1C
E6
05
01
F8
0E
16
DA
07
FF
0B
15
04
F1
1E
F5
F8
00
1E
0D
FD
0E
08
FE
F7
10
05
FD
FB
F9
0C
0C
0B
E9
10
FB
EF
22
ED
0B
F4
02
E4
E9
DC
DC
01
E8
E4
1A
F1
F4
0A
F0
F0
E7
18
11
F8
FD
DF
29
F8
F5
11
DB
EF
F3
F1
11
1B
DC
12
01
00
FC
00
ED
16
F7
FD
0F
1A
1B
FA
0F
10
FB
E1
23
ED
F7
F9
FB
1A
10
05
E6
20
FF
F5
25
E4
FB
DA
05
EC
F7
E3
DB
E5
00
F3
0E
01
FE
EC
F1
0B
ED
11
08
F8
F5
F4
26
0B
E6
10
CF
F8
F1
F0
05
0B
D9
07
FF
00
F9
07
F6
26
F8
FC
F7
15
06
07
0E
1F
F8
E9
0A
E9
F7
F6
F6
09
13
09
E5
12
03
F8
16
EF
0B
DE
0D
EC
F4
F0
E1
07
05
ED
0F
F9
FE
EF
02
05
F3
12
03
03
F6
E4
2A
0B
F6
0B
C2
FB
F9
05
03
00
D3
12
F5
FE
F8
FD
00
12
FE
03
FC
12
19
09
FD
1F
09
E8
0D
E3
F8
F6
F4
0C
12
03
EF
09
07
E8
27
EE
13
EA
16
ED
F2
01
ED
17
03
C9
0B
F2
09
07
07
FB
E9
2C
12
F5
04
F1
25
00
F9
12
CB
0D
E8
F8
07
09
D4
1A
FB
05
FD
FD
F4
24
D5
03
0A
1A
01
03
FA
15
FE
D7
17
DC
EF
F2
09
18
2F
06
05
20
FD
F1
18
DE
14
EB
17
F2
EF
F8
EF
06
FA
F0
1C
F9
00
00
F3
FA
E8
1B
05
16
01
F9
29
F5
05
17
DE
0C
F6
FA
07
09
BA
1F
07
FF
0F
FC
FC
12
D8
01
03
0A
11
FB
FF
21
F4
C3
15
DE
E5
E6
03
04
13
0E
FE
1D
03
F1
0E
FD
10
E8
00
E3
04
E7
D9
09
EC
EB
14
0C
0D
FE
EE
F4
D6
19
16
1D
02
FD
1E
00
FB
1B
E4
FC
F2
0D
08
0C
B4
1E
10
03
0A
0C
08
05
DD
12
FB
08
0E
05
FE
16
02
CF
FF
D6
EA
D7
EE
08
0A
16
EB
0C
EE
DA
FD
FE
0C
F0
07
F8
14
D8
E3
FD
F7
E5
06
08
08
ED
12
FA
CC
18
13
28
FE
EF
23
06
0F
17
E3
0C
F1
0F
FA
10
C3
10
18
17
F9
12
18
06
E5
0E
F8
05
06
FE
1A
01
F9
E1
FE
E6
F6
ED
F0
08
11
19
F2
11
FB
D1
02
10
06
03
FE
0F
06
D3
F5
FB
FF
D8
FD
0C
04
F1
F1
E5
CF
12
0F
26
01
F0
2B
0F
0B
0E
E9
0B
F5
00
15
04
D6
19
10
15
E6
04
0F
04
FC
09
0F
0E
04
FB
0E
F8
0D
DA
FC
EE
0A
03
04
0F
09
0A
F6
14
FE
C6
0C
15
0E
F0
EE
18
10
B8
F5
E5
07
EF
EF
1D
07
02
F2
F1
EB
0C
1F
08
03
F1
1E
FA
0C
06
F2
07
E6
0F
12
0A
DA
11
0E
06
F0
FF
0E
14
F9
13
FD
0E
09
FB
FD
EC
FF
E3
F5
F6
0A
F9
F8
0D
0C
0A
16
FD
F5
E4
F4
0F
11
00
FF
14
0C
C3
FF
DB
0A
EC
E4
16
07
0E
F7
E9
07
FE
07
08
02
05
19
F8
09
0A
F5
0A
F5
09
08
FC
E9
07
00
FD
E5
09
FC
03
FC
0D
0E
FE
FF
EF
F8
E8
FC
E5
F7
0B
08
01
FB
03
04
03
11
19
EE
E9
FE
07
16
F4
06
1B
1A
DA
02
EA
FF
EE
DC
06
05
01
F2
EE
08
0B
FF
18
19
03
15
FA
F2
08
0E
0F
F4
05
08
FB
FB
FB
03
07
F1
FB
EC
FA
F8
09
12
0B
1E
F4
08
E9
11
F4
FF
12
05
E3
FA
0A
02
0E
02
17
EE
E6
08
F5
0D
FD
18
0B
11
F8
0B
E6
07
E5
F3
08
FF
0A
EF
E2
13
00
02
21
14
FE
07
03
F8
F5
FE
04
00
FB
06
F1
F3
F4
F2
FA
0D
06
F4
EF
02
02
00
F8
22
FE
11
E6
18
F7
F9
EF
10
F7
F4
04
F7
06
00
04
F6
EF
01
F9
1D
04
0F
19
EE
F5
16
F2
0C
E5
03
FA
E4
15
FA
E4
FA
F7
FA
2C
04
F5
FA
F4
06
EE
03
01
00
F6
1A
FB
E8
FE
F5
04
0F
F9
F8
FA
FD
E9
18
EF
11
E2
05
F4
0B
10
F0
ED
17
F7
02
13
06
F6
EF
02
F8
F2
FC
F7
05
15
01
FA
0B
F5
0D
EC
13
F2
F8
FD
0C
15
0F
EE
FB
03
0E
20
0C
FF
EF
0F
FD
EB
16
06
EF
0B
FE
ED
02
E7
EF
11
F8
05
09
E2
0A
F7
10
0B
11
F7
08
F5
22
16
EC
0E
11
FA
07
15
18
09
EF
04
08
F4
05
06
EE
0F
FD
ED
FE
09
F1
00
FA
FA
EF
03
29
0D
10
04
F3
05
01
0C
05
10
F0
1C
09
EA
09
13
FF
10
FC
F8
09
E5
01
05
EF
01
FE
E5
F1
F8
0A
10
F4
07
0B
18
15
1D
E6
09
FC
EE
05
08
0E
01
F5
04
FA
F1
FD
09
F4
03
E1
EA
0B
FD
DD
FE
E4
F5
E9
F6
04
27
04
FD
0E
14
05
08
FF
0C
F5
29
FE
EF
F6
17
04
0B
02
FB
13
DC
06
1D
F1
20
01
F6
FC
F9
12
0E
0A
E4
22
0B
12
FF
EA
FD
FB
F9
F9
04
18
06
F1
0F
F2
F0
15
02
0D
F8
FE
01
11
07
E6
F9
F1
07
09
FD
04
0F
13
EB
FB
0D
09
27
F6
00
E9
1F
ED
E6
EF
11
FE
F7
F0
02
F9
EB
F2
1A
01
0A
FD
FC
0D
04
0E
08
04
F9
15
15
14
FF
FB
F8
FA
09
05
0E
0D
FA
06
FD
FC
11
07
F5
FF
02
0A
F6
FA
F9
F0
0B
FA
06
0F
0E
03
FA
12
07
06
F5
03
F6
FC
FB
FE
15
F0
03
F5
FA
F6
F4
05
04
F5
00
FA
FB
15
FB
03
06
FB
F2
F2
FD
F6
12
F8
1A
04
02
FD
FC
0F
FC
F9
0B
FE
F0
FD
0E
FA
00
06
F3
13
00
1B
FA
03
FF
FB
F9
08
F7
04
01
0A
01
F7
F8
FA
02
12
FB
F6
00
04
04
EC
08
F3
00
FC
FB
F6
00
F7
F2
01
F9
FC
06
04
0B
04
F2
FF
02
07
04
FD
18
16
FB
EA
00
0D
FD
EF
08
06
FF
F8
FB
06
04
FC
00
FD
FF
FD
FF
FE
FB
F8
09
03
F7
FA
F8
FC
F9
07
FB
00
FC
F7
01
04
08
07
07
08
FD
FC
FC
04
06
01
FF
FC
02
F8
08
09
06
F7
02
F9
08
05
FE
00
04
FF
FB
06
04
07
F7
05
01
02
07
08
09
08
03
07
05
FD
F9
F7
FA
FB
04
FF
00
F9
00
F7
06
FC
FE
FB
02
FE
FC
FC
05
08
06
01
02
09
FB
F9
06
01
01
FE
04
04
06
F7
04
09
F9
03
05
04
05
01
01
FC
00
F9
00
08
02
FF
09
F8
FA
F9
06
F7
08
01
FA
01
03
F9
09
05
00
05
FB
04
02
02
FD
FF
0C
FC
04
FF
08
F9
00
F7
05
FD
09
00
FB
02
01
0A
FD
09
00
00
05
09
05
FF
06
0D
01
05
FD
00
F9
05
02
FB
FD
FA
FB
02
06
FA
00
03
FD
0D
F6
FD
08
F7
FC
FC
00
10
19
0B
08
FA
02
FA
E1
E7
1E
FE
FE
F2
12
04
13
0D
13
DF
13
04
08
0B
03
EE
F4
0E
00
1C
F3
F8
0E
12
FD
09
06
20
F1
0D
17
06
F9
14
EF
F7
1C
F0
12
EE
F7
F8
07
0A
03
F8
00
11
FD
F2
E4
F4
01
F5
F4
07
0D
E9
F6
F9
02
FD
F8
09
11
F6
F8
11
17
14
F7
0C
04
F0
0E
02
E9
01
EA
E6
16
14
FA
06
EB
07
F7
06
F2
16
02
11
07
08
09
08
12
18
F8
FF
0D
E9
F0
0A
EC
18
EB
00
17
FF
FD
1C
F0
0D
11
F7
1A
EE
FF
11
FB
EB
F6
11
FD
16
EF
08
00
F2
0B
F7
06
F9
F4
FA
E5
FE
27
09
F6
F3
1E
0D
FB
16
EC
07
F0
F6
0C
F6
F6
11
F7
11
11
0D
11
EB
08
18
10
03
18
F9
F7
0A
0E
0A
05
24
FA
F3
E7
FC
FF
07
01
E2
04
14
FE
F5
19
04
F5
1D
F3
0E
E0
F5
EC
E9
FF
04
06
F9
DE
05
FA
FB
11
01
FA
0E
1A
10
EE
08
EC
03
EB
F3
20
F3
F7
F1
E7
14
07
05
0B
F2
03
0D
E7
02
18
FF
F2
EE
12
0F
05
1B
FA
F9
E8
06
FE
07
EA
EE
01
01
03
FC
1F
03
E3
26
08
F7
F1
00
F6
DD
F8
F1
01
FE
DF
1C
DC
08
07
FD
FD
0D
09
17
FB
0A
E9
1F
03
F5
12
ED
FD
F1
E2
01
05
FB
09
02
F8
0D
DF
FB
24
F5
FA
07
13
0D
FF
1A
00
F2
F2
0B
F6
F7
ED
FA
EF
00
FF
ED
07
07
E2
07
08
F7
F1
01
EF
EC
E3
F2
FE
F6
E9
15
F7
08
FF
F9
F2
0D
17
14
FC
FE
E5
26
04
FF
10
ED
02
FA
D3
0C
FE
EB
16
01
F3
0D
F6
09
13
04
FB
05
0F
05
00
03
10
EE
EA
02
E2
F6
01
0C
02
09
05
E1
16
04
DC
11
05
FB
F4
F8
EA
E2
F9
E3
05
EE
EC
17
F5
00
0A
E5
01
06
2F
09
F6
04
D1
18
FD
F6
07
D9
F8
F3
E6
0D
FD
E5
13
FE
F3
0C
05
F5
1A
F2
F4
08
15
13
FA
09
19
EA
E0
02
E2
DC
EB
F2
06
06
FD
CC
16
17
E3
0B
08
FB
F0
F9
E7
E6
FE
E7
FC
01
EF
1A
F5
05
F1
F6
00
F6
30
06
EF
EC
F7
22
02
FA
06
D8
03
ED
E3
0D
F3
DB
1B
01
F3
F7
0A
07
11
F6
04
04
0D
16
08
08
11
04
E1
FF
E7
DE
EA
F9
09
18
FE
E6
16
09
ED
FC
FA
00
F1
F9
ED
F3
EB
F4
19
F6
F2
10
F9
0A
FA
DF
01
EB
2D
0D
05
FA
FB
19
0C
00
13
E8
13
EE
E1
1A
03
E1
1E
FD
03
0A
F6
04
07
02
FB
09
12
0F
0D
01
12
07
EB
FA
E0
DF
E1
FC
12
1C
06
FE
F9
13
FB
00
F8
06
F8
0D
F5
E5
E6
03
0B
12
FE
26
FF
10
FC
E7
FA
EE
07
FB
0F
FF
F8
30
04
04
00
FE
12
EF
FC
04
00
FF
25
F3
F8
0E
FE
0F
04
03
01
0D
02
07
FF
E9
0D
04
EE
F8
E3
DE
F9
0F
06
13
09
F7
FE
0E
F5
F7
01
03
FB
02
04
00
E8
06
01
14
08
1E
05
0F
FF
FD
06
EF
0A
0F
0F
FA
00
1C
FA
08
17
FD
05
FA
F7
15
FA
02
24
F1
FF
0A
F4
14
08
F8
F5
0A
0C
FA
FB
F7
12
FE
F3
03
D4
D9
F5
03
F8
08
0C
09
06
11
F9
EF
FF
F8
07
06
08
03
C0
F8
07
20
02
0B
02
0A
03
0E
FF
F9
13
00
FF
04
01
28
F9
06
08
FE
07
05
0A
0F
F5
E9
18
03
08
16
F8
1B
06
FE
05
0C
00
03
FF
00
F7
F5
F5
00
D8
DB
E1
04
FD
F6
F8
02
FF
09
EB
E5
FD
F5
08
07
FC
08
BB
F3
F8
09
00
0C
09
1D
F4
FC
05
DC
11
00
01
F7
02
29
07
F8
10
F9
0E
FF
13
10
EC
ED
0F
07
0C
FB
F4
0D
05
06
0E
13
05
FF
F1
14
01
06
E7
F6
F8
ED
E3
10
F8
FA
00
05
08
FA
F5
F9
00
02
F8
04
0D
0E
DB
EA
03
0F
FC
00
01
13
FC
00
F4
E7
03
FB
1A
FC
F6
2D
F6
FE
05
FF
FF
05
08
16
EF
F5
15
0D
FC
FB
FB
FB
04
13
09
15
FA
09
03
FA
05
FE
ED
05
F5
F7
EC
00
0F
09
07
F1
FD
11
E3
F6
02
FF
06
FE
0D
11
E9
E8
F5
FD
EF
F0
14
03
FB
F8
01
DC
16
F5
05
00
F8
28
04
0C
0D
06
FE
09
12
16
F2
07
13
02
08
EE
FE
03
0D
FE
0C
15
06
0A
09
F6
F6
0D
F4
09
FC
EB
FC
FE
FB
0F
09
F4
F9
07
E1
F5
07
15
06
08
0C
11
E7
F8
F2
04
F7
F4
05
0A
FC
FB
F7
EA
04
FD
11
F4
01
1B
0B
09
13
11
0A
01
13
14
F7
F5
03
00
0B
EB
01
FB
0E
06
14
04
00
05
05
FC
F8
FD
00
F9
04
FA
0B
12
07
06
0A
FC
03
12
E3
F3
10
07
07
1A
FB
14
F7
ED
0D
FD
FC
F5
0C
02
FF
01
EF
05
04
F8
1E
FC
FD
11
03
06
03
18
FC
07
08
07
E6
F6
07
F7
02
E0
F5
07
08
07
0D
05
FD
FF
13
FC
FB
FA
FF
05
F0
0A
04
15
11
0D
0E
F7
0E
FF
CA
F5
0F
0C
00
09
0D
0E
19
02
F1
EF
F7
F2
17
0B
16
FB
E4
FF
16
FA
0D
04
FB
0D
03
05
03
14
09
FE
02
12
F1
F3
EE
E7
01
E6
01
15
14
00
08
08
05
07
0B
06
FA
05
F1
0B
EB
04
FC
FF
08
0F
05
E3
FA
0D
C9
FD
13
09
13
02
02
16
0B
FF
E9
F6
FA
EB
1F
0D
13
02
E3
05
0E
02
09
ED
FF
FF
00
03
F9
FD
0B
FB
0C
11
EF
FC
E5
EA
05
CE
00
12
05
F7
FE
F9
05
06
F3
0C
00
FA
F9
0A
E2
04
05
FB
09
09
FE
ED
FF
F5
D6
E8
FE
0A
15
0B
05
FA
18
0F
F6
F8
E8
E5
15
0D
14
0C
F1
0A
0C
00
1F
F4
0B
F0
0E
12
F7
0B
03
F1
F7
0A
E8
0C
D4
DA
18
E3
08
0C
FE
13
FF
10
F7
03
F8
04
03
12
0A
FE
F8
0C
08
08
08
0B
F3
F8
FD
04
E2
E9
13
01
0F
03
F2
ED
0C
06
04
FD
F6
F2
09
FF
11
0D
F0
FF
03
0A
15
F2
07
F3
00
1A
F0
03
0F
FA
FD
0B
F6
FF
C8
DB
14
DE
FC
20
FB
1A
F6
06
FC
FA
FF
00
FE
FE
09
03
FF
10
FF
02
09
14
F6
FC
FD
02
DE
F1
03
FF
13
07
E4
FA
02
01
07
04
01
F6
02
1F
12
12
FD
0A
07
0C
10
F1
29
EF
16
F5
DD
0F
1A
E9
F3
FC
E7
F4
C7
DE
03
F8
F8
11
E0
07
E7
FF
EC
0C
07
07
FE
1B
FA
E8
15
25
0A
04
F8
07
E1
FB
F9
0D
EC
F9
F2
F7
31
0A
F8
F4
E5
14
F4
0D
10
0C
0F
34
FE
0B
E2
F2
F0
0B
22
F5
1B
EF
26
0C
DC
02
0C
FA
DA
08
F6
F6
F6
D7
08
05
01
09
EA
1A
DA
0E
F1
0C
0E
F6
08
FF
1D
F2
1D
0F
0E
26
F9
10
E0
F1
FC
03
FF
F1
FD
FD
21
0F
F9
01
E3
11
F3
10
13
00
0B
21
07
06
F7
01
F3
0B
0D
F7
04
02
1A
FE
F6
02
04
05
E8
07
00
EC
FA
F3
05
F2
04
11
FA
23
EC
16
08
F5
09
F2
08
04
06
FC
11
0A
00
13
F2
03
F1
FB
01
F9
E8
F0
EA
07
0C
F7
0A
07
FA
06
FD
FD
0D
08
FC
1C
11
F1
E6
FD
14
00
0B
04
02
02
24
17
FB
02
0D
10
01
06
FC
FA
06
F4
14
F4
16
01
F3
08
07
12
18
F3
0A
E8
12
01
11
E8
01
05
F6
07
09
02
FC
EC
FB
EE
E9
14
F4
14
F6
08
01
18
FC
F5
FE
F9
F4
FC
04
0A
1B
FD
F2
05
0D
12
FB
05
03
EC
1C
0D
F8
F5
06
FA
0F
FC
13
08
FB
FB
0B
F4
0D
FB
F6
FD
01
0B
19
03
EA
FE
04
07
0E
F0
F3
0B
FE
F0
FD
0C
0E
06
FA
FE
05
F7
03
00
F8
FF
04
FF
05
06
09
FD
06
02
03
F9
00
FD
02
01
FD
08
00
08
FD
03
06
03
F7
06
F7
FD
FD
01
03
07
F7
01
08
FA
FD
FC
00
04
FD
FA
FA
FE
00
02
08
FA
FC
06
07
FC
05
05
09
00
02
FA
F8
F9
01
F9
F7
03
07
FC
F9
08
FC
FD
F8
FC
04
00
FA
06
06
FF
FE
F7
FB
06
05
FC
FE
FE
05
04
FD
04
FB
02
06
02
03
08
08
FA
00
03
07
FB
FB
FA
05
F8
F8
0A
03
FF
05
00
03
02
03
F8
01
FB
08
F9
F7
0A
1D
09
F8
0B
F3
02
DB
FC
03
1B
06
EB
10
EA
00
09
0B
EF
23
FB
08
18
0E
09
F6
15
10
16
FB
EA
F9
FE
0D
10
06
06
F6
09
1B
04
FE
10
F2
01
20
01
1B
EC
15
12
FD
14
FC
11
F6
11
FF
EB
E7
F4
10
FD
24
17
1D
15
F9
12
FC
01
FB
0B
FF
F8
FD
0A
0A
14
F9
11
EA
07
FF
F2
EA
FE
08
0A
FC
14
ED
12
EF
FC
E6
F4
F5
0D
E7
07
F1
FA
20
F4
F8
18
DE
EA
02
F9
04
06
03
08
06
FA
05
FF
E7
0C
FF
08
08
1A
F9
EF
01
0C
10
12
F6
17
F7
0F
EF
08
FA
EF
0C
EB
03
F7
F2
17
E0
10
13
F2
F1
06
1F
22
EC
18
ED
F9
F4
F5
16
F3
F5
F8
F1
0B
01
EC
18
EA
01
1F
00
E3
0B
F9
F7
F4
1B
0A
FA
11
16
FC
E2
12
F2
00
E7
F6
01
FF
F9
FC
12
FA
07
0D
03
11
DC
F2
04
ED
21
08
FE
05
F4
14
E2
F7
0E
02
F6
16
F8
07
0C
14
E3
FA
E9
FB
18
F9
E7
F4
DD
08
FF
06
08
DF
FE
23
F0
01
0C
F9
01
E7
FC
0F
F1
11
FD
F1
E8
03
F5
10
EF
E9
F3
E0
FC
F3
08
F9
F2
0F
04
06
EA
F8
FB
E6
20
FA
09
FD
E0
1B
D9
FE
0C
FF
F9
06
FF
16
0A
01
D2
09
F7
03
20
FD
F6
01
E6
0C
00
10
0C
FB
01
1B
02
05
08
F9
FB
FE
01
14
F5
09
06
F9
E8
0A
FC
FE
E9
ED
F5
EF
00
E2
0C
05
F5
F9
08
03
F8
F2
00
ED
07
F0
FD
ED
D9
1A
EE
F0
11
F0
F9
04
FF
13
04
01
DA
FC
FA
07
01
E7
F3
11
E7
06
06
F7
15
02
0A
07
13
FD
0A
F5
FD
16
01
06
03
04
1B
F2
E7
07
E9
F8
EE
F7
08
0A
0B
DE
F6
F6
F4
F2
0F
FD
01
F6
02
EC
10
F2
F6
F2
E3
14
F2
F7
03
0A
0D
06
F8
0A
FB
F8
D9
03
18
0E
09
ED
0F
EA
F0
FE
FC
FA
08
01
07
05
16
0E
FF
0D
01
FD
00
07
06
F8
17
F4
F9
F6
E2
03
EC
FF
FC
05
F9
EB
F9
F2
E0
EF
08
FE
FD
FC
FE
EB
21
EA
06
F4
F8
16
E6
FC
FA
FF
FF
FE
FC
FF
09
FE
F4
FF
16
08
07
00
16
EA
F3
03
F9
FE
0A
FD
0C
0E
15
0E
FF
13
FA
0C
00
09
07
F4
19
02
05
F4
ED
F5
03
F3
0C
00
F6
E6
02
01
DD
FF
FE
EE
FE
08
F7
ED
12
FA
10
FE
F9
15
F0
00
EC
FA
08
F8
02
03
FF
00
F5
02
FF
F5
FF
02
20
EF
F8
F3
FA
00
11
06
07
0E
0F
12
08
0F
FC
0F
00
10
02
F4
0D
03
0A
F9
E0
F7
0A
FB
04
04
F0
F4
00
0D
F3
EB
FE
EF
0E
09
FB
F6
FA
FA
0B
0E
0A
17
EF
02
EE
F6
04
04
EC
FA
04
FF
0A
0A
0F
05
02
04
17
F5
07
03
FB
07
11
06
FE
FF
06
04
09
0D
FC
0D
01
FC
0A
E5
06
F6
0D
F7
EB
F0
18
10
FF
04
E0
EB
FA
01
DB
F7
F6
EC
10
FD
07
EE
E0
FE
0D
06
01
09
09
14
01
FC
11
08
FB
0A
FF
06
05
FF
07
09
01
07
00
04
FA
FF
F6
04
0E
FE
10
01
02
F8
0D
13
EA
0A
05
04
02
FA
06
FB
07
FC
E8
E9
00
10
01
07
E1
FF
F7
06
E2
F4
F3
EF
08
0E
04
FB
C1
F9
12
FC
FF
06
08
05
FD
F6
06
06
FA
F7
08
05
FF
13
F9
01
01
FD
F7
06
03
FF
F6
02
15
0E
08
03
07
EB
02
13
03
12
00
0B
F7
02
14
00
FE
FF
EC
00
04
04
02
FC
EE
00
FF
FE
DF
F3
FA
F7
15
03
07
F9
C5
F7
13
03
FB
10
12
16
FD
FD
07
E9
FE
01
06
FD
FD
19
FB
12
05
F9
FE
01
08
0F
E8
FE
07
13
0D
01
0C
ED
05
04
0A
FF
FF
FF
03
FB
0E
08
EF
03
02
FA
F8
08
F7
0E
F0
FA
FB
01
E3
06
F5
ED
08
FC
12
02
E5
F5
01
0C
FA
0B
1C
02
00
09
00
E8
07
F1
0B
0E
00
25
F4
0B
FB
F9
F1
02
13
02
E8
FF
FE
10
00
0B
04
E7
0F
06
13
07
04
06
F9
FB
01
03
F2
02
F6
FE
F4
0A
F6
01
F2
FD
03
06
E9
FE
03
F6
02
09
03
FC
FB
FE
02
FB
F8
06
19
04
11
EF
F4
EA
08
0C
0A
FA
F3
22
06
06
09
F9
F5
FD
06
09
00
F2
08
06
04
F8
FF
F3
07
00
0F
0D
0A
03
07
FB
05
09
E6
13
FA
F8
F1
0C
FD
07
FF
EE
FF
02
DB
FC
00
FC
0C
0E
FD
0C
07
F1
15
F6
F6
FA
06
0A
06
FC
F8
EA
0E
FD
10
00
F8
16
00
09
FC
00
FF
05
09
00
FC
03
05
F5
FA
EA
FC
F2
FE
06
08
14
FE
0A
F6
F2
0E
07
FA
F9
0A
0A
FE
0A
FA
0D
FB
E2
0A
0C
DA
FF
1D
07
07
16
FA
21
10
FB
0D
01
FE
FC
FE
FA
02
FC
EF
F8
10
FC
14
00
F6
17
06
00
F8
EB
FC
05
10
FF
F5
02
FF
F0
04
EC
02
01
F5
11
09
13
00
FD
0B
05
FC
FD
F2
FD
F5
FD
FE
02
04
11
0A
E7
09
0D
D9
F5
15
0C
F9
13
FA
25
0C
06
10
E9
FF
F1
12
EE
0D
F2
E5
FE
24
F0
0E
FE
F3
0A
FB
08
F9
E8
FF
FC
08
0F
F6
06
02
F1
FB
D4
F8
0C
05
FA
01
04
07
FD
02
0D
08
04
E4
F6
01
04
F3
08
13
0D
1A
F1
1E
23
DB
FE
17
03
0A
01
FB
1E
06
05
10
F4
0D
FB
09
FF
22
E3
E8
FD
24
04
08
FB
FF
10
01
0B
F6
01
F9
FD
FD
0A
F0
00
FD
E5
FA
B9
00
06
04
07
EE
10
FE
0B
03
05
09
08
F8
02
0C
0E
08
08
05
13
15
F9
10
12
E9
F3
18
0E
17
01
EE
11
04
FC
F4
E4
04
FD
13
FB
14
F1
F2
08
1F
00
0E
EA
00
09
FD
00
FA
01
0C
FE
F7
12
E7
06
EC
F3
FC
D9
03
0B
F4
02
FD
00
FB
03
14
03
01
05
00
F9
FD
0C
FB
10
F4
07
05
F5
13
17
E1
03
19
14
0C
0E
E7
FD
1A
06
F5
F9
F2
01
01
FE
1B
F2
FF
0F
10
FC
10
F3
06
0E
F2
FF
08
F7
0B
06
F4
08
E3
00
E0
E5
FE
D2
FE
0F
FC
17
FF
FC
FD
FD
1E
F6
01
04
F4
02
F9
09
F3
FE
F6
11
F4
F7
04
0C
ED
10
0E
02
0E
0D
D5
0E
10
0A
05
05
E8
F3
00
01
18
F3
FD
23
11
13
13
0C
FF
F9
F3
F3
EA
F8
0F
F2
D8
03
F0
FB
E4
E2
06
F2
F6
01
F9
10
F6
F5
F5
FA
11
FF
E5
14
01
FC
FC
11
ED
FC
E3
17
F6
F7
FF
FB
EE
02
04
01
10
0D
E3
03
0A
0D
FA
0F
ED
0A
06
15
10
F7
E8
13
0E
08
1C
FB
16
F0
18
00
D9
F4
14
0C
EA
06
EC
F3
F5
DF
09
06
FA
00
EC
19
F2
0C
03
FA
05
05
03
0F
12
ED
02
1A
00
06
EE
12
EA
F7
08
FB
F3
04
F8
07
1D
FB
F8
F0
E6
07
F0
10
F8
2C
EA
2C
0C
F2
F9
0F
FD
0F
0F
FC
07
FF
2C
0A
E3
05
FF
14
F3
0A
01
06
00
F3
06
FF
FB
08
F7
23
E9
2A
03
F1
16
F0
25
FC
14
E4
13
FF
FA
15
F7
07
F7
F4
0A
EA
FD
0D
E1
0C
FD
0A
0C
1A
F7
10
F5
FA
FF
0F
E5
20
12
DB
E8
F9
0D
05
13
E4
1F
F0
24
EE
F9
04
01
0C
11
F3
0D
ED
01
F6
07
ED
11
FF
F3
13
FD
27
0E
1C
01
EA
0C
25
09
E5
19
0F
FF
02
10
08
08
F6
E4
F7
F6
0F
FC
07
00
02
0D
15
02
01
FC
03
F1
04
F7
1C
21
FA
F1
F2
10
0E
FD
EF
0A
E6
13
05
09
ED
12
00
0E
FB
06
05
FD
02
10
FE
0D
0E
E9
02
FA
01
18
FC
F8
0E
0B
09
0E
F6
02
05
FD
F5
F6
05
17
FB
F7
09
FE
01
07
FE
FF
FD
FE
F8
07
F8
F9
07
06
F9
FA
F9
09
FC
F8
F7
F8
FE
08
02
05
03
07
06
08
01
03
08
08
06
FD
FF
FC
04
F8
06
FD
FF
06
01
08
06
01
FC
F9
03
F7
04
02
FF
FA
06
07
FC
FC
09
FF
0B
0B
0C
FF
0A
04
0B
05
0D
0F
F5
FA
05
06
FB
FF
03
04
F9
FF
F1
E9
01
02
06
04
04
F0
08
FB
12
09
00
FC
12
FA
10
07
FA
02
02
F8
04
FB
F9
11
F5
02
F8
06
07
09
FD
09
0D
F1
08
EB
F6
FA
FE
01
01
F9
06
F5
EB
FA
FA
F2
0D
04
19
11
00
FE
16
F0
FB
F3
07
02
03
04
0F
F1
FA
F9
04
18
F8
0A
FE
0A
FB
16
13
E9
FC
F1
F5
0D
FF
F0
05
1B
13
18
13
14
14
16
EF
F3
F5
F9
EC
09
0B
0F
0A
08
0F
07
F3
0F
0D
02
19
12
04
0B
0D
08
15
ED
0A
0F
E7
04
00
12
08
F4
17
F2
F0
09
0C
F3
05
FF
20
F0
FA
F7
11
FE
00
15
FE
E4
F4
F3
10
05
07
17
EB
07
17
FB
F4
FA
00
0B
EB
0E
10
02
ED
1B
F5
03
06
00
F8
ED
FE
F9
F5
00
24
F5
F9
06
13
F9
06
F8
11
0A
F6
FB
07
05
FF
F2
16
FE
0C
07
03
DE
0B
06
23
ED
11
EF
ED
09
FC
26
0B
EB
F9
F0
08
01
ED
13
E7
FE
03
07
FE
0A
01
0B
DE
06
16
02
F6
20
EE
06
12
01
F3
E4
F7
09
02
F8
F1
F4
F7
04
1C
08
0A
02
05
02
D7
0E
0A
EE
0C
D8
06
07
EE
12
1D
E4
FB
F6
18
15
0D
E9
EF
02
02
11
10
00
01
E9
07
EB
EF
F7
E4
0E
08
FF
24
0B
FE
0B
F7
F1
07
09
FE
1F
04
07
0A
FA
0A
FC
EF
04
FE
E7
FB
EF
FF
08
03
02
FA
F7
FD
F4
E2
1D
04
05
01
DF
16
EF
EA
02
0B
EB
0C
F3
08
16
04
C7
FB
FC
11
0E
FE
F5
FC
F2
0B
FD
10
13
FB
0A
13
FC
06
09
04
FC
FB
FE
00
F8
FE
14
FE
06
FF
E8
0B
F8
F8
F9
02
F7
EC
03
F7
F8
F4
F6
F3
F0
F3
F9
EF
11
07
03
F8
ED
10
FB
E6
0C
01
03
10
EE
01
0A
02
CC
F6
09
05
F6
06
FC
FF
F2
02
F3
0A
FC
0B
FD
09
0D
06
F7
03
03
02
0B
00
F9
EB
11
FD
04
FF
EE
F4
F6
06
04
00
03
DB
F3
FE
F2
E7
F4
FE
FF
F8
F7
F0
1B
E7
FF
02
F7
0E
02
F2
F8
0C
01
07
ED
FE
03
06
DE
F2
10
06
00
FA
04
F4
EF
FC
FA
09
FF
05
0B
01
08
02
FF
0E
F8
FE
FF
0B
00
E6
14
F1
07
FE
D7
FF
08
03
04
05
ED
F0
FF
F5
EA
E2
FA
FE
F6
F4
FF
E6
18
EC
FE
F8
F2
0F
EF
F3
FD
04
F6
0B
EC
FC
0A
FF
E4
F5
0E
FE
F7
04
11
FF
F2
01
0A
FF
03
05
01
04
F9
F7
0C
11
EE
F9
0D
06
FF
F0
14
F5
0E
08
C6
FA
10
08
0F
FC
DF
F8
18
01
F5
EB
F9
F8
FA
FC
06
F3
13
F1
12
F9
07
16
D9
F4
EF
EC
F9
FB
E7
EC
08
FB
FF
F9
FF
FB
FA
0B
0F
02
F5
05
04
05
03
0C
FF
0C
00
06
14
11
F8
02
F8
F6
0D
F1
14
F6
06
19
E0
ED
12
03
FD
E8
D6
EF
0D
F4
E8
EF
F8
F5
FA
FA
0A
FE
FF
F7
15
FD
09
1B
F4
FA
EE
00
FA
FB
E3
EA
0C
09
0B
FC
08
F6
F8
0C
08
05
F6
01
F8
05
0A
13
FD
07
0E
08
14
04
01
02
FA
03
06
F2
07
02
11
04
F3
F0
01
07
07
F1
D6
EC
05
00
E2
F4
FB
F9
13
01
15
00
DF
FF
04
09
0E
13
02
F6
06
03
02
05
EC
FD
13
02
FF
F2
0D
01
FE
05
02
FA
FE
01
F5
0A
01
14
08
FD
0A
FE
15
F8
0C
F8
FC
0D
0C
F2
11
FD
05
FE
F3
01
11
14
FB
EB
D8
FA
FA
08
E7
F5
FB
F7
0A
10
0C
FE
C1
F4
10
09
FC
11
F5
FD
11
03
01
0A
E8
EC
11
0B
01
05
03
08
FD
07
FB
FE
FA
FF
ED
00
06
26
00
05
06
F9
18
06
06
02
FA
04
FD
FF
02
00
00
01
FE
0C
16
10
01
FB
E4
FA
0F
00
EF
FB
F0
F4
02
00
06
FD
C0
F7
16
FD
0A
23
06
F2
03
08
01
13
FB
F7
1D
0D
06
1D
FC
01
05
FF
F1
09
FD
F8
FA
09
FA
1C
09
09
04
E2
0E
04
0F
06
0A
F0
F7
01
05
07
00
02
0D
13
1C
0A
02
F8
F4
F5
07
FC
E9
05
F3
FB
F9
FA
03
09
E4
F3
26
06
12
14
12
F3
04
FD
13
05
FD
F2
0E
02
02
1D
FE
FE
F5
FE
F0
08
0B
F3
0D
FF
01
06
09
FE
06
E1
10
00
0F
06
0C
EE
F1
FE
1B
0C
07
0A
0B
15
10
0B
07
FD
0A
F1
0C
F4
DF
05
F7
F2
FA
F8
11
0A
0A
EC
20
07
12
09
1E
FF
FB
F6
04
01
EE
F5
13
09
FA
24
05
FF
07
02
F0
ED
15
F7
09
0A
0A
0A
09
14
09
E5
06
0C
05
0F
FC
FA
E8
04
17
F9
01
05
FC
19
08
14
F9
FB
0E
ED
13
EF
EF
F7
FF
F6
F5
FB
1B
0A
17
01
14
0A
07
12
19
04
EF
01
13
03
F3
EA
0D
06
01
25
0A
06
FE
06
F2
F2
1F
F4
13
17
FA
EC
07
F7
15
F6
01
07
FF
05
04
F4
F9
F7
0B
02
00
01
FC
10
06
0C
F8
F6
1B
00
1A
EF
EC
F3
0B
00
F6
0E
0F
0C
22
06
1C
12
16
0E
0C
F4
FC
EC
08
F3
F3
E4
0D
03
FF
27
01
FC
F9
F9
E9
EF
23
FE
08
FF
00
E4
05
F0
0A
FC
06
0A
06
01
FF
FE
F4
05
09
FD
FD
FA
FB
17
08
0B
08
F2
0D
F5
11
04
E1
F4
14
06
02
09
0C
12
13
11
0D
00
07
02
FE
F5
06
DE
F7
EE
EE
F1
14
03
FA
11
05
FF
01
FF
F7
F9
0C
03
F8
F6
FC
E3
00
D5
FE
FF
FE
02
00
10
F4
EC
FC
06
06
FE
FF
05
06
13
0D
13
FE
F8
08
05
04
02
E5
F7
16
0D
FC
FD
F7
13
13
18
0F
FF
02
02
F7
E7
0C
E4
FE
FB
FA
EF
13
00
05
15
02
08
FE
08
F6
FC
07
05
F4
03
F7
DC
FF
B4
02
F5
F1
18
F8
07
F2
F5
02
0E
08
F9
02
F7
0F
1D
F8
03
07
FE
12
FC
15
07
06
F3
10
15
00
0C
FE
0B
0B
09
02
FC
07
11
0A
E5
12
F0
11
07
F8
F1
0F
FD
0E
12
F7
0A
00
03
F3
FA
FE
FB
02
08
F0
EA
0A
D5
FF
0C
F1
0A
00
FE
FD
E5
0F
F9
06
F0
07
FF
04
17
FB
F4
0D
03
FB
0D
FE
0D
FA
01
11
21
14
03
E5
05
04
12
FD
FC
FA
FC
04
E6
0E
03
FE
04
0B
FC
06
FF
05
06
08
0D
FC
FE
16
04
F5
03
F9
F2
D8
F1
01
DE
0A
12
F4
07
FE
0C
FC
DB
0D
00
FF
14
06
FF
04
17
FB
03
F4
11
EE
0A
15
0D
F0
FA
15
0E
1D
01
DC
05
FF
06
01
FA
F3
F7
FF
F6
18
EB
F4
11
05
07
F5
F3
04
F3
03
00
E8
01
10
0A
F4
04
F7
FF
F4
EC
10
ED
F7
00
ED
06
F0
08
F2
F2
05
FE
F9
14
1A
F5
0D
06
03
0A
EA
10
E8
00
0E
F4
E6
03
EB
03
16
16
F5
FF
F4
1B
F5
12
E9
01
06
FF
0F
E7
F6
0B
FD
0A
03
09
18
E4
0D
F5
EB
0D
03
05
D9
0F
EA
EC
F6
E6
0A
F2
EF
01
F2
0F
DE
10
F6
01
17
03
FE
14
0E
E7
16
1E
FC
02
FE
18
E2
F9
07
FF
EE
09
EE
ED
1B
09
F9
01
EC
10
F3
02
0E
16
FF
2E
0B
DE
F5
0E
F9
03
27
E1
23
F0
3F
F1
E1
15
F4
1A
F6
14
FA
00
01
EA
F5
FB
F5
02
FF
28
E8
2A
09
F3
15
F1
19
1D
25
D5
19
16
08
12
13
02
F5
05
F7
EF
0B
06
E7
04
0B
1E
F5
00
11
2A
F7
1E
F0
0A
EE
20
E9
EE
02
02
FD
05
20
FE
0B
F6
05
EE
F8
09
07
10
E7
05
14
FB
F4
F6
F3
E1
F5
0D
09
22
F5
1A
EE
0A
0E
FB
0E
0C
07
E5
1F
12
0D
07
0A
0F
E5
EE
0F
02
08
08
02
12
02
0A
01
0B
0D
0C
FA
10
F8
11
00
04
0D
EB
F5
03
10
05
0B
0A
F7
EB
02
EB
F6
FD
11
01
06
F7
F4
FD
F3
05
0E
F2
07
12
04
1A
FD
00
08
14
F9
FE
0F
19
EF
F8
F1
0D
FC
F8
F3
11
07
FF
05
06
FD
FC
02
FA
FA
FD
FB
05
F7
FA
FC
F8
07
F9
FF
FB
FF
00
07
04
FD
04
F8
06
FB
05
FC
F8
FE
08
03
01
FA
F9
03
F8
00
FC
09
04
FC
08
FF
06
FF
02
04
00
FD
01
0A
02
F9
FD
F7
FA
09
06
FE
09
01
11
17
FE
09
FF
F2
25
E6
23
16
FB
EB
FF
08
F8
ED
0F
17
F6
11
F3
EF
0E
F8
0C
FD
F7
E2
13
FC
19
1C
0A
F9
0A
F3
06
12
E8
01
F6
FF
17
FE
0A
20
FC
08
FC
07
1C
0E
FB
15
11
F3
1E
DF
ED
EA
E4
F9
00
F1
03
E6
EF
06
F4
FD
0B
04
14
15
02
F4
17
F3
04
EB
0E
01
0A
09
22
ED
09
00
02
00
0C
FD
FB
05
16
12
0B
EB
FC
F5
F3
0A
03
EE
EA
1D
10
11
0E
0C
0C
0C
F4
FB
EE
11
EA
15
FB
19
03
FB
04
F6
FD
02
0E
10
05
05
FE
17
04
08
0B
EE
0F
20
EE
10
0A
FE
15
EB
0C
10
FB
09
20
EB
1F
F6
05
EF
F2
E6
FD
05
07
19
02
F0
EE
EF
FA
FA
0F
08
EF
0D
1E
13
04
0F
10
FE
E2
0A
0B
0D
E8
1E
EE
19
16
F1
F2
EC
FC
F6
F9
E9
0A
02
12
FB
0E
0C
09
DD
0F
00
F2
09
F3
0F
07
EE
19
0C
EB
0A
0D
D9
0C
10
1B
E4
02
DE
0A
FB
10
08
05
E4
E7
F3
0C
EB
EE
28
E1
EE
1D
EC
EB
06
F7
11
E4
2A
10
01
0A
29
ED
00
1D
F7
E4
DC
0C
FD
10
F3
05
EA
10
F9
FA
03
FA
F6
18
F2
EE
F9
03
04
1C
D3
FD
11
F1
0B
0A
E8
04
F8
21
F2
03
DE
F3
FB
16
FF
0B
08
EC
EC
10
F0
E1
05
EA
ED
05
F8
08
03
0D
01
F9
F8
02
FD
F9
18
EF
08
03
F3
FF
F0
FF
0A
0E
E2
F1
F8
05
0E
F9
11
04
FC
F7
07
E8
F6
08
F5
09
E1
11
04
ED
F8
0C
E2
06
E4
08
FE
04
C6
F2
06
07
01
0A
F9
E5
ED
03
F7
FC
0C
00
FB
03
07
13
0B
06
05
F2
01
FB
00
E6
1A
F7
FA
03
EE
EE
F9
06
00
06
E4
D9
02
FC
FB
E8
EE
FA
F7
F3
FF
ED
09
0D
02
01
E6
04
03
EC
0A
02
F7
FA
E7
01
09
00
D4
FC
0C
08
FD
06
FE
04
F2
05
01
FC
06
FB
F9
F7
0C
16
01
0B
F2
EB
F5
06
0E
E8
15
F1
F8
FF
F6
F3
F8
F7
01
02
EE
D5
FF
0A
FB
F6
E6
06
02
FF
FD
F9
06
ED
FC
FB
F6
11
F8
EE
FB
F4
F0
07
E9
0D
0E
06
E8
F7
11
F8
FD
0C
17
FC
DF
09
FE
F8
09
F6
F1
F2
FD
0C
07
1A
F5
FE
06
F9
0D
F2
13
F7
0D
08
DD
FE
17
19
05
FD
E0
CD
0F
05
EF
F0
F5
03
F9
FE
09
E2
1A
05
04
F0
01
1F
F3
F1
FF
FA
03
FE
EE
01
08
F6
00
F8
0F
08
F9
04
10
F8
F1
00
F7
04
FE
0E
F8
FD
0A
0F
1B
04
FE
F7
05
F8
05
F4
19
F2
0C
08
DB
FE
0E
08
06
E7
D7
E8
03
FC
F2
EC
F7
03
04
F4
0D
FE
0F
06
0A
FC
FF
1E
EB
FE
F5
F7
FA
00
F7
F9
1B
FC
17
E6
08
FC
02
0A
15
FF
FC
FB
FA
05
00
12
FC
FC
15
0E
11
0F
FF
FE
FA
F2
0C
E8
0F
01
06
19
E6
FB
11
F7
05
E8
D0
ED
07
F9
F4
F9
05
0E
0C
04
06
FC
FB
01
08
FE
FB
16
EB
F5
F7
FE
FD
FA
01
FF
16
00
0C
EF
F7
F5
0C
04
FC
0E
FA
FE
F6
FD
F2
1B
04
02
04
0E
14
0D
07
F9
00
F2
03
FD
09
00
06
0F
FB
03
17
0A
05
FF
D5
FE
0C
FC
F7
E7
0A
01
07
02
07
0C
DF
01
08
02
00
21
F3
F2
F5
04
FF
06
F7
F5
13
01
01
F3
F1
FE
04
FC
E7
0C
EF
01
0A
0D
F8
17
F9
F9
FD
05
1F
04
11
01
06
EB
08
00
09
F9
08
09
01
0A
19
FF
0B
ED
F4
FE
FF
0D
F8
E9
0A
F9
00
07
05
FD
D1
0B
15
F9
0D
1D
F9
03
01
FC
03
19
FB
F1
0F
09
0A
F9
FB
FA
FB
04
E6
03
00
F5
00
07
FE
16
FF
0D
00
ED
18
F9
17
FF
04
DD
03
FF
0B
02
06
12
FF
10
28
0F
02
FB
F7
04
1B
0D
01
FA
F3
07
F8
14
F8
12
D9
04
21
03
0B
22
01
EF
F4
FA
10
12
F4
F3
1A
15
07
08
F0
FD
03
04
FE
0B
EC
FE
0A
FE
F8
10
F9
17
FD
E2
28
00
0D
03
F2
FA
06
0C
05
15
02
08
06
07
12
FD
09
FC
00
FB
15
F9
F3
F2
EE
FF
F0
FD
FA
15
E8
02
20
FA
17
1C
0B
F2
F1
04
FE
05
F3
EC
17
0C
09
0D
F5
FC
05
08
F7
FF
0A
FD
17
02
F8
02
FF
1D
07
E8
10
F5
14
0B
FE
E9
F4
06
1B
00
FF
00
12
0F
1A
0B
01
F8
1A
FD
0B
F6
F2
01
F2
FE
F1
0F
02
04
13
04
12
06
18
20
1B
F5
E8
FB
05
F8
EF
F0
0F
10
08
23
04
02
FE
04
F2
F9
12
FD
06
04
08
FE
02
14
03
E2
0F
0C
13
08
EF
DE
05
FA
0C
00
06
06
03
16
0E
09
01
F9
17
04
F8
EB
F6
FE
01
03
F4
03
03
FB
25
09
0F
03
09
17
13
02
F8
01
13
EE
FA
F3
01
13
05
1D
FB
11
05
02
00
FA
19
F8
FE
0B
FD
F4
08
FC
12
FA
0A
0B
09
FF
FE
E8
FF
F9
0F
04
09
F8
F8
1D
15
FB
0C
F4
05
0E
07
F0
F2
F9
10
03
F8
0C
02
00
28
1B
18
07
0D
16
09
EF
FF
FD
05
F5
F5
ED
FB
FC
00
20
08
FF
FC
04
F9
FE
20
01
FE
01
02
EF
10
E8
0A
02
08
0A
07
F2
FE
EA
0B
F5
19
0A
11
02
FF
17
05
FC
03
01
13
0B
FF
F9
F1
F7
23
0E
00
12
02
FB
18
19
06
09
FE
09
FC
E7
0A
EB
08
F6
ED
F5
04
F5
0B
23
F9
06
FD
0C
FF
ED
19
FD
FA
05
FE
DE
03
CC
02
03
0D
0B
03
04
F3
D6
0D
02
03
03
10
0E
01
0B
F4
02
FC
01
FD
0E
F4
FA
FD
FB
1C
0A
EF
0B
FE
03
19
18
04
00
00
FB
EF
EE
03
EF
06
FA
ED
EC
08
01
FE
18
F6
F9
FB
0D
F9
F9
12
FF
03
FC
E1
E2
08
D1
06
03
07
09
FD
07
F8
D5
0B
FF
04
FC
09
0B
0D
13
FE
F2
04
FC
FD
13
F1
FF
0B
F2
1C
16
07
FD
F1
10
07
1D
03
07
08
F5
EC
F4
FA
FF
0B
FB
03
F1
06
01
05
10
08
F3
F7
FB
1B
10
11
F4
FD
F8
DC
DE
01
CF
08
FC
00
08
FD
02
F9
DE
09
02
F9
FE
06
00
07
09
FA
01
FD
FC
01
17
0A
08
FF
FF
10
1C
0F
08
F4
15
F6
0F
FB
F3
FE
FA
F1
FA
04
F6
06
0B
F6
F3
E7
02
09
05
0B
FA
F1
09
29
09
08
FA
FE
EF
D8
E4
FC
CE
0A
00
07
FE
05
03
F6
D7
19
02
0B
18
0A
0A
10
0B
0B
0A
EA
03
F5
19
ED
F7
F4
EB
0A
1B
10
FF
EF
08
FF
0B
F6
F2
FD
ED
0A
F3
06
02
0C
03
F4
E4
E9
E6
1F
F9
06
11
04
04
1A
0D
FA
FC
F0
FB
E4
DF
06
DC
11
0F
F0
09
F4
FF
F6
D8
0E
F9
F7
0E
06
FC
13
08
01
FA
E2
00
DE
10
E1
E8
F1
FA
FE
12
0C
04
F6
0A
E6
03
FA
08
F8
F7
00
03
09
F8
FE
F7
F5
04
F6
F8
0A
E8
05
05
05
04
F8
FC
EC
00
FF
FA
F6
FC
05
E5
06
03
E0
07
D9
FB
F4
F5
F8
F8
01
0E
0C
E0
01
04
03
00
06
1E
E9
03
F2
F8
DC
0B
F2
FD
19
FE
F2
06
DE
11
E1
0F
0E
0F
07
2D
F8
F8
F2
EF
01
06
21
02
FF
F7
1E
FD
F8
10
EA
03
EE
0D
0E
F6
07
E8
F6
EE
FF
0C
F1
2E
CB
25
04
EF
FA
FA
FE
07
19
E4
10
06
1A
10
F4
1B
EA
0A
F1
F9
F5
0F
FD
F9
13
16
F9
F1
0C
22
FA
20
F9
05
FC
25
F6
FD
F8
03
FB
06
1C
08
0B
FF
F8
FB
02
0A
0D
06
EA
FA
0B
F4
F2
EE
F8
F8
F2
16
07
2B
E9
06
FD
04
12
06
11
0F
08
EC
1C
04
0B
F9
F2
0A
EA
F3
FB
FE
1A
05
04
0C
FE
0C
F6
10
11
17
05
03
02
0A
FD
09
FE
F7
EE
FF
06
03
12
05
0A
F6
0E
F6
F4
F4
0B
0B
0A
03
F9
F8
FE
FF
07
F2
07
07
0B
14
0C
08
12
0C
EF
09
09
1C
F0
F0
FE
02
FE
FB
FC
0D
FD
0E
F4
0A
04
19
FC
16
13
0E
F9
00
FA
F7
FC
F2
EC
0D
00
FE
FE
0C
EA
FF
10
FE
FC
FA
01
01
ED
16
06
03
18
05
07
0A
EC
FA
FE
0A
FB
F3
1B
06
FD
F8
0B
04
ED
0B
11
F8
19
FF
FA
05
FF
03
05
E4
FC
16
F3
F8
05
E8
1F
02
01
1C
EA
08
19
FE
00
12
FC
F9
FF
15
09
02
10
12
11
13
EE
12
04
EE
F1
07
18
FE
0B
FA
EA
F6
FD
05
12
E1
EE
07
0A
FF
08
14
09
FD
15
F1
F8
0F
0B
F5
17
00
18
07
E6
F2
E8
F1
02
E8
02
F9
E9
FB
01
EC
10
05
05
0D
0E
F9
05
18
08
FD
E0
01
0D
FA
11
14
02
04
F8
EF
08
10
EE
F6
04
16
01
0B
EA
01
0B
FE
02
0E
FF
FE
1D
16
07
0E
FA
F2
FB
F9
FD
F1
07
FF
10
F2
FE
0D
F4
0F
F8
FB
06
16
05
07
F5
00
05
E9
0A
0C
E8
F9
08
FD
14
07
09
0F
E6
09
14
F0
16
14
F0
0F
E7
05
F8
0F
FD
FE
0A
1B
01
06
E6
02
00
0C
01
07
10
F8
11
16
FC
04
05
F8
FE
EC
07
FB
09
00
21
F3
01
0E
F7
F9
F8
02
03
F4
F1
18
F8
04
EF
E4
02
01
EB
11
FA
F5
F9
04
07
03
E7
08
0C
EB
0E
08
DA
0B
07
15
D4
01
E7
FE
01
05
05
08
E9
F9
E5
15
02
00
21
DE
08
15
EA
F2
06
FB
09
F0
2C
0C
02
0B
21
E6
07
1C
FD
E1
E5
04
04
05
E9
03
E9
FF
0E
EA
FC
FF
EC
FF
FA
FC
F3
01
F9
11
E9
05
0D
E4
03
13
F3
0F
F9
13
F0
FC
F1
ED
0C
08
0C
16
02
DE
E2
0C
FB
F4
08
EA
FF
FC
F9
0A
08
0E
0C
F6
08
FD
FC
02
14
E7
08
FF
FB
ED
F8
FC
07
F9
EA
F2
04
01
0E
FA
FF
FF
FC
03
11
F8
ED
02
03
10
FB
01
19
E9
07
0A
F4
16
F1
0C
F4
08
EC
EC
06
11
F6
1F
0A
EF
FB
FC
05
04
11
07
FF
F4
0D
FE
FF
08
F7
07
0C
FC
FA
ED
1A
FA
09
09
F8
FB
FA
03
FE
FA
DD
E5
F8
FF
04
E6
FF
00
0B
F5
10
EC
F4
07
01
F6
F5
00
16
EF
00
00
F9
06
F7
FB
FE
02
D8
F4
0F
09
01
1A
F8
0F
F0
11
04
F7
FC
00
01
F5
0E
0A
09
01
FC
FA
06
EC
04
EC
1F
F6
14
0E
F7
E6
01
FE
00
F6
E1
D9
0C
F8
FA
E1
FB
00
FC
E7
05
ED
0E
FC
04
F5
0A
12
0E
EF
F8
01
FF
12
FA
FF
10
00
F0
F2
1A
FD
FB
07
09
F3
02
00
0A
05
05
15
0B
F4
15
06
0E
FF
F0
09
00
ED
FD
FA
1B
F1
0F
07
E7
F9
06
0A
12
F6
D9
DC
F6
F9
F9
F1
01
06
FD
FB
0A
E7
22
FC
04
EE
F5
05
0D
EB
EB
0D
06
0B
06
F8
06
FF
04
E4
12
00
0C
0D
14
FB
FF
FF
04
10
00
18
FF
F3
0C
0F
13
FE
08
0E
FC
E3
0A
FA
08
09
06
0B
E0
F4
11
04
FE
EF
D8
E3
FD
F8
04
F8
FD
FA
06
F9
FA
F3
15
FB
0D
FD
0A
0C
F3
FD
F1
06
06
19
FB
EA
05
FF
FE
EC
FD
09
0D
FC
12
FC
03
00
0A
01
F5
0E
F1
F9
0C
0C
20
05
0D
07
07
DF
07
EC
0C
FF
06
12
F6
F4
0D
01
FB
F9
F0
E4
FC
F0
05
ED
FF
05
09
F2
00
0D
05
0F
FA
FD
09
0A
ED
08
EE
00
06
FE
F8
F3
11
FB
11
E9
FC
F9
FD
F4
F5
04
FB
FA
16
06
E8
07
FA
F4
11
0F
0C
09
04
01
06
DE
02
F6
16
01
F7
17
0C
FD
0B
02
05
01
F0
F1
FD
00
16
EB
FC
02
0F
FD
03
0E
ED
0D
04
ED
07
0F
FC
FA
00
04
08
07
0C
ED
0B
FA
01
E3
F7
06
03
02
EC
03
FC
0B
02
FB
E8
0C
FE
F8
07
05
06
0C
0F
FD
FF
DF
13
03
16
06
FB
12
04
08
14
04
12
FE
04
07
0E
0C
11
F8
F8
F8
04
08
F5
02
D3
05
09
F6
02
0B
04
F7
FA
FF
02
1D
0D
EF
15
F7
0A
E3
EF
00
FB
05
E9
0E
FC
0E
10
FD
F8
FC
05
0C
0C
F5
FF
F7
07
04
06
E0
10
0A
11
0C
F0
1C
18
01
09
01
0D
06
06
12
05
0E
19
FE
FA
03
F8
04
FD
08
C9
0C
06
FB
0C
24
17
F5
EC
FC
0B
0E
FD
E9
0A
04
F9
F0
F9
FE
05
FB
F6
0C
00
09
08
F8
FF
FB
01
25
F8
E2
08
04
12
F4
FF
E0
1F
FE
1E
0D
00
12
12
03
03
F8
05
FD
04
08
FC
06
0D
04
E7
08
F0
08
05
08
ED
FD
02
FF
00
22
22
FD
E9
09
00
04
F9
F8
05
10
05
02
F0
07
08
06
07
07
F8
F4
0C
09
FC
06
04
2A
03
E2
FE
F9
1B
F5
F7
D5
11
FA
19
03
05
0B
0F
06
1A
FB
02
F7
12
1D
F2
F3
03
F3
E0
17
E9
05
09
FF
1A
06
0B
F2
13
1B
09
FF
F1
FC
F7
F0
FB
F3
00
0D
FD
16
FB
0D
F5
09
F8
ED
13
F4
FC
00
13
F5
FD
19
0D
ED
0E
FA
1D
FA
F5
D4
0A
EE
16
FF
FF
00
02
0C
1E
FB
0D
EF
0C
17
F4
F2
0C
03
00
0F
F0
0E
07
FD
27
15
FE
04
0A
1E
0D
05
F2
00
F4
FE
FE
F2
F6
0A
FC
1F
F0
0B
FE
0A
F9
FE
0D
01
F7
08
0B
FE
F9
02
0B
F9
09
02
14
E8
F5
DA
0F
E4
16
05
F9
08
F7
03
11
FE
03
F1
09
0F
EE
03
FD
ED
18
13
F0
06
18
E7
22
0F
00
04
07
1A
F2
FF
03
02
F7
F6
F5
F3
F4
06
00
1E
F9
12
01
0B
EA
F6
19
06
F3
16
16
0B
04
E5
06
0C
0A
F0
03
F9
F6
D6
09
F0
1A
F4
00
06
06
0A
14
FA
06
F5
F6
14
FA
00
01
04
15
05
F8
08
09
FA
0E
17
04
FD
01
00
ED
04
00
F3
02
F8
FC
EE
EF
FF
F5
1E
03
F7
0A
08
F7
F6
0B
02
F9
06
01
04
02
D9
F9
04
05
F6
08
F7
06
D7
13
04
12
FC
F8
09
FB
FE
0B
F9
F6
02
04
21
E1
09
00
06
18
0F
03
14
03
EE
07
25
0D
04
FA
03
E4
EA
FA
FA
F8
F4
02
F2
FC
F9
FA
0A
07
00
0B
07
F7
08
0D
FE
03
FD
E7
F7
03
C1
FC
0E
05
F9
FF
F4
F6
F6
19
F2
09
FC
F0
04
FA
05
15
00
F6
06
F5
24
EE
01
09
04
18
0D
01
FD
F5
FE
FD
22
00
00
02
F1
ED
F8
F4
F1
F8
EF
F7
E7
F9
FE
05
08
FF
04
0C
08
20
12
0B
F9
08
F6
DC
F5
08
CC
05
07
F6
05
03
FF
F7
E7
07
07
02
0A
0D
06
12
FC
06
00
F7
06
06
16
F5
F6
00
02
17
1B
02
F9
FB
02
F3
12
FE
11
0A
09
F9
F2
FE
F4
05
FA
FD
EA
E2
03
01
16
07
04
11
07
0C
11
08
10
15
ED
DA
D9
F6
C5
F8
05
0D
F7
07
04
F9
E5
0D
FA
09
10
F3
11
07
F5
07
F9
F3
01
F5
1A
E3
F1
FE
F0
06
14
0D
00
02
10
E9
06
ED
0A
0F
01
0D
06
F2
F6
0A
04
F8
FB
F1
E6
0E
08
10
03
03
0D
FF
FA
FE
08
EE
E0
D4
DB
FB
D0
01
14
FF
01
05
FE
F8
F1
16
E7
0A
18
01
06
07
F9
11
03
E8
08
EC
18
CC
E2
ED
ED
FA
0F
20
05
FA
04
E5
20
F6
16
07
03
14
13
01
F0
0F
EC
F5
EF
02
09
15
ED
0A
FA
09
17
FC
F6
FC
F9
FA
F5
E9
EE
FE
D9
FD
11
DF
F5
DE
05
EB
EE
F4
FE
F9
16
22
E8
22
12
20
09
E5
12
E8
0F
D4
F7
FA
F0
F4
F0
35
11
E6
EB
E5
1F
FF
1E
04
10
08
35
F2
FB
FE
F9
F4
FD
FE
FF
0E
E7
0E
0D
EA
1C
07
03
E2
07
05
FC
F3
ED
08
E3
FF
1D
DE
FF
E5
30
FA
F9
01
04
FF
0A
28
EE
25
10
2D
10
F3
18
E0
F9
04
FA
EB
F9
FC
F5
1C
0F
02
F5
F3
0C
06
0C
04
03
E5
2D
F2
F8
F6
14
FA
07
08
0F
0F
ED
01
02
F3
13
08
04
E8
07
06
0D
FD
F0
09
02
F6
11
FD
1D
E9
17
01
F4
15
08
0C
08
18
F7
0C
FD
05
0D
EC
02
F3
17
06
04
17
F9
FD
00
15
F6
FA
0C
F8
02
07
F4
0A
1E
F5
17
FF
E6
E5
0E
0D
F0
08
09
1B
0D
1A
09
FA
15
F7
16
07
08
F9
FA
F1
FA
EB
EA
03
03
0E
0A
F5
10
08
FC
13
EB
12
14
0D
0A
1E
F3
03
15
FD
FE
08
00
FA
F8
11
FA
F8
0D
04
EF
00
06
09
00
FC
FC
F5
02
09
FB
09
0C
08
0F
EE
00
FE
04
F9
F9
12
08
08
0B
06
FF
FA
07
02
FE
FF
F5
0A
0D
12
04
08
FA
FA
FC
F1
10
01
FA
09
03
09
06
FD
FF
FB
00
F5
01
FA
02
0F
F7
1C
FA
F2
0B
EA
FD
10
03
0B
07
F8
08
FB
06
20
EC
0E
0E
10
0F
F5
00
02
F8
FB
06
05
13
0A
13
FB
F7
F9
F9
0E
F2
EB
FA
14
FF
05
13
0B
05
05
F2
EC
16
04
FB
04
02
12
06
F6
04
F3
F2
FC
F2
F2
FA
FB
FE
12
E8
02
11
F2
0C
FC
FB
0A
FF
0A
05
E3
0A
27
F3
01
00
FE
0B
FB
FA
F2
15
F7
FA
08
1C
FC
12
FC
10
05
0D
11
FF
01
FD
10
1A
FC
01
F7
FD
F6
ED
04
F5
FF
0B
13
EB
FD
19
EC
01
07
FC
10
07
FA
02
06
02
0E
00
03
14
DD
03
0A
02
FB
F8
FE
17
01
14
10
F8
0C
FC
E2
13
FB
01
F8
13
F3
0E
08
11
05
FC
F1
06
F4
0D
04
FB
07
FF
03
11
F0
05
01
EB
10
F5
22
FA
0B
F7
27
F0
F9
1A
EA
F3
FD
08
F2
F9
F2
05
08
FF
00
F6
F4
02
DB
FF
09
F0
F4
02
02
F2
F1
16
19
FA
1A
12
DD
0F
F2
FA
00
06
F2
F1
01
07
0B
06
E4
EE
DE
07
12
FF
FE
EB
0B
09
03
FD
F9
14
F3
DE
0C
19
13
03
23
04
09
0E
FB
ED
EE
F0
0A
FD
EA
FC
08
09
09
00
F5
FA
EB
F7
FB
EC
EF
F6
F3
01
ED
02
02
EB
05
13
DE
29
F1
00
EF
F9
D8
E6
0C
02
11
12
F5
E5
DE
FF
08
FC
12
F6
FD
01
03
05
FF
0F
F4
F3
0C
F3
0B
F5
13
F4
18
03
F6
FA
FD
11
08
F9
E6
EB
0A
F3
05
E9
FC
03
F6
ED
11
ED
EB
02
05
EC
0C
F8
10
F3
07
09
EC
1A
01
EF
02
04
E4
ED
04
11
09
12
02
01
EB
03
0F
09
0A
10
FF
F7
06
08
FE
02
F1
02
0E
F5
F9
ED
07
FF
0B
05
F5
EA
04
01
02
E2
EF
EA
03
FA
FB
F8
F2
FE
F7
F9
06
FE
F2
EE
FE
ED
06
03
1F
F6
03
06
E2
11
0E
FA
00
FF
DA
EB
08
01
09
12
FC
09
F2
02
1C
0D
F5
0A
FF
02
01
04
FA
0C
F0
04
02
EF
0E
F3
09
01
09
0D
E3
F4
F2
00
14
F3
E1
E5
02
05
06
F3
F6
F6
06
ED
FF
F0
17
FF
06
EB
04
11
06
FA
05
FB
F4
15
FC
01
0E
12
F3
EE
0F
FF
FB
14
16
00
F8
0D
12
01
FA
0F
04
F3
00
0C
F9
FF
05
0B
F5
F1
FC
F6
10
09
0C
13
DE
EC
06
FD
0D
E8
E8
F5
07
F4
01
EC
05
F1
FC
F2
01
F1
21
FD
0F
F0
0F
FF
0B
FB
F3
F9
EC
12
07
FD
0E
02
0B
EF
09
04
0C
07
1B
F9
09
00
10
F8
F7
19
FC
F6
02
15
02
06
05
0C
FB
DE
FD
00
11
0A
0D
0A
EF
EE
06
00
08
FA
EF
EC
FC
F8
15
FA
FB
FB
FA
E8
FB
01
13
01
07
F6
09
FF
EB
FC
E4
01
F6
1E
02
E2
0E
08
07
F3
FD
F5
04
F6
04
04
FF
F6
1B
08
EF
16
F7
F3
04
15
EB
FF
00
02
F4
DA
0F
FC
05
03
FF
15
02
EC
05
0E
FA
F5
FE
E8
0A
F7
0E
F1
F5
02
03
F0
06
0D
07
06
01
FE
06
FA
F0
01
F5
07
FA
18
06
F7
1B
03
11
E6
09
F7
12
FE
FB
FC
03
FB
1F
02
F1
02
FB
F1
FF
1E
E7
06
FC
FD
F4
D8
0B
00
0A
10
FB
10
05
F8
0C
03
16
FB
05
01
0B
02
1C
FB
00
FF
03
F1
FB
06
F4
04
F3
F5
0A
0B
F5
F0
FF
02
13
0B
FD
EA
16
F0
0D
E2
FB
05
0F
FF
D8
F0
07
04
0E
02
F1
F6
09
07
03
0D
E7
12
10
FF
07
E0
0C
06
18
0F
E6
16
08
0B
0B
05
11
05
03
09
09
06
2F
05
FA
0A
06
09
07
FD
C2
FE
FF
F9
05
0E
0D
F5
05
F3
11
13
FC
E1
01
F6
01
D6
01
11
0B
F8
EE
F6
14
0A
0B
05
F7
F1
F5
15
FC
F9
C3
07
FF
F5
04
F2
1B
00
11
01
ED
08
11
04
FE
F5
09
F8
0E
1C
F4
09
2B
08
FA
0E
FA
00
0C
F5
C2
02
F2
F1
0B
1B
14
F3
00
FD
15
04
FC
E8
EE
04
F2
D8
FB
FF
05
F9
EA
08
07
13
06
F9
FC
FF
05
3D
F8
F9
D9
FF
F1
EC
FE
F6
20
04
13
00
FA
FD
0A
F7
F9
F4
05
F5
02
19
F6
FA
22
FF
D6
FB
F1
01
15
FA
08
04
F4
FD
0A
21
10
00
F3
0D
16
02
F5
F4
F1
0B
FD
FC
F8
09
01
0A
F7
F7
08
05
F5
13
18
F6
02
39
F5
EB
F7
E9
F8
F4
04
EC
15
F7
0C
04
06
FE
F5
FF
07
00
00
EC
FD
2A
E8
00
07
F5
DB
13
ED
FE
13
F6
2B
FC
FD
F4
01
1C
02
01
ED
0C
F1
F7
04
FF
E4
F7
FE
04
FF
01
EF
12
FB
FA
FE
FD
FC
0A
23
05
02
19
FF
F3
0F
E8
08
EC
05
F6
16
E3
FF
FE
05
03
FB
F6
12
08
14
F8
F6
30
E8
07
12
FC
F7
07
F7
F9
0E
EA
23
10
03
F5
07
1C
F7
09
06
FF
F3
08
F2
F8
E4
FA
F4
08
F9
0F
0D
10
F6
F8
F0
04
F1
19
20
0B
F9
02
F9
07
0B
E5
06
EF
06
F0
06
EF
12
EA
00
07
F4
FB
22
09
FA
F8
F2
15
E4
09
20
FA
20
04
FC
02
15
E3
0B
1E
00
FF
FC
0D
FC
FF
0F
FE
F6
02
ED
FD
DA
03
F0
0D
F9
05
10
04
FB
F2
FB
05
FD
1C
21
15
FE
D9
F9
15
08
E4
FD
E9
FF
E5
06
F5
0A
F3
F8
FD
FB
F1
11
01
FF
00
F0
14
F4
0B
0E
F7
28
12
03
FF
0E
DC
FC
0B
FF
01
FD
FF
E3
02
07
F6
F5
F0
02
F3
D1
01
F1
0D
01
0B
16
04
FE
FB
15
06
05
11
07
0C
01
D4
03
0C
FD
D3
07
FE
01
E2
0B
FA
07
EC
EE
01
FB
FE
00
0D
F4
0B
03
1A
EA
0B
0C
FB
1B
07
0C
F9
F8
E5
F9
10
0D
FE
F3
F3
F6
FE
EF
F7
E8
EA
09
FF
E0
FE
E7
1D
01
0E
0F
06
FC
15
12
FA
16
FE
EB
FC
0F
D0
0D
0D
F5
DF
F1
03
03
F1
FA
FD
12
F9
00
02
00
F1
0D
02
FB
04
FD
07
EC
FA
F7
00
21
02
10
F9
F0
DD
F5
15
07
05
03
F7
FA
F8
FE
F9
FB
F3
FB
F5
E0
01
F0
FC
FF
18
0C
0C
F8
17
11
00
16
F3
DE
F8
0A
C5
0C
1A
F7
EE
06
F5
F6
F3
FF
02
04
FC
05
FD
06
F0
00
0A
F4
0C
00
1C
F8
F2
F5
F0
08
02
10
08
0A
F4
F4
08
06
06
FE
06
0A
FE
E6
ED
0F
EE
F0
FD
E4
13
FD
11
0C
FE
14
10
F1
06
00
13
19
EC
C2
DF
F4
D9
FD
0A
10
FA
FB
FD
FB
07
10
E3
0A
05
F8
0E
0D
E3
00
FE
E9
FF
00
1A
E8
EE
FD
EA
0B
11
0E
FA
F2
F6
E3
FA
0D
09
13
0D
1D
FA
DF
F0
0E
F4
EF
E8
E8
FA
FE
13
08
04
0B
12
F3
0A
0C
04
03
DE
D7
E9
F3
D3
08
19
04
F7
FC
F8
F8
FB
15
E5
FD
0E
FF
FE
0C
E6
04
0D
DD
0A
EF
14
DB
EF
0B
F4
07
19
22
1D
E0
03
FD
12
11
04
0E
12
15
0F
DC
FD
0A
F5
F7
E5
F1
14
26
E9
0F
06
07
12
08
F9
FE
02
F6
DE
D6
F3
EA
E1
09
22
D6
00
F3
15
EE
F0
08
F4
F1
09
02
E1
28
02
0D
FB
DE
0D
E0
16
E8
FF
08
F5
F8
07
31
26
EB
FC
E0
30
1E
0C
0D
1B
F0
0F
FE
F3
F7
06
FB
F9
F2
06
2D
EB
24
03
F8
30
FF
10
E8
0E
09
F7
F5
EB
F9
E5
F4
2B
E0
04
F6
33
FE
F9
05
F5
FC
15
09
D6
1A
08
1F
17
ED
08
E4
12
04
06
FD
0D
EC
F2
10
08
FB
F2
F4
14
07
09
03
FE
DD
10
E4
EC
F3
1A
F3
F8
02
FA
1C
03
1F
02
DE
20
FA
FC
E6
07
0F
02
FA
D9
FA
FC
E5
0C
EC
0B
05
12
05
01
15
F5
24
0D
13
ED
0E
F6
07
18
E0
04
E6
FF
F4
F4
0B
01
FB
0A
03
04
03
EE
07
15
F8
19
FB
F7
F8
F7
EB
F7
13
0D
EC
EE
16
F7
FC
0A
FE
F6
03
F2
F1
FE
F6
F4
16
F9
FA
F9
16
05
FA
10
0A
FE
08
F7
EB
FD
FC
FC
1B
FB
FB
00
EB
12
04
FD
03
F0
F4
EE
F6
FA
0C
F1
03
0C
FD
FE
06
FD
03
0B
F8
05
FF
10
05
01
11
07
09
05
FE
F7
FE
03
FC
01
0A
0A
FE
05
F8
06
01
FA
13
FD
F6
F6
02
0E
0E
09
FF
FE
06
00
FF
02
0A
F9
0B
02
08
0A
F8
F6
FF
F4
06
03
F6
09
12
F4
1D
03
F8
11
F5
FB
12
0A
0B
0A
08
05
F9
11
20
EF
13
0E
0C
1F
F8
07
00
FD
FC
FA
04
0A
13
FD
FD
07
02
FF
09
02
F8
FC
FF
08
FC
0E
0A
0B
09
F9
EB
0D
07
F8
FD
FE
08
02
F7
F5
F1
F7
00
FC
FF
00
ED
02
09
EE
FA
0E
E9
0B
06
FA
0E
08
0E
01
E5
10
1E
F1
FC
0D
08
19
EE
05
04
04
FE
FF
04
1B
0D
08
EE
0A
F5
0B
0A
0A
FE
01
08
06
FB
0F
F9
F6
09
E7
F8
ED
08
FD
1A
ED
FB
01
03
05
01
ED
03
F8
F8
EC
06
0B
00
06
00
10
F1
FB
04
01
F3
F3
02
15
ED
13
0A
FD
02
F9
D7
01
FD
F4
0D
1D
EC
0A
F4
18
00
05
FE
F5
F2
18
13
FC
14
F9
01
13
F3
01
FD
FB
03
FD
10
F0
0B
FE
06
F7
F5
11
EF
F3
03
11
0C
06
F1
FE
FC
FE
FD
F7
F7
0B
F7
F4
08
F4
FE
F2
F0
E7
05
04
13
07
10
06
D0
07
02
ED
F9
21
F1
E7
09
11
0C
19
EF
F4
F5
00
23
00
04
EE
07
01
09
FF
F7
00
F8
D7
0A
03
16
F5
01
0F
07
00
00
F3
02
FB
04
F5
F4
EB
0B
00
07
05
08
F4
E7
ED
04
E7
FB
01
FD
F1
FC
02
FC
FD
16
06
DF
1E
02
FB
04
05
DC
E3
14
FF
0F
05
F4
E1
F9
F7
1B
FC
F8
06
05
FD
09
03
06
17
FD
E9
17
F6
15
F4
08
F4
21
03
F1
06
09
11
FB
FA
E5
F0
0C
0A
11
F6
FF
EE
F9
EF
06
01
DE
F4
08
F8
09
02
0D
09
05
00
E4
20
FC
DD
0F
F1
D7
F3
0D
0B
0E
17
F4
F8
F5
05
24
00
F6
0E
FA
F9
13
F6
F8
FE
FD
F6
09
EC
01
E8
11
F8
1E
10
DE
F4
03
0C
FB
FF
E7
EC
02
0A
0C
0B
00
F5
0B
F8
06
09
F8
FE
00
F1
0C
04
02
FB
EB
07
DE
10
06
F0
00
05
EF
F1
03
FE
0C
15
02
0A
07
06
1B
08
EE
0D
03
EB
0D
01
E4
03
F4
FE
FF
F5
05
F9
07
02
07
11
E2
EC
07
0D
09
00
EE
EA
F7
06
0A
F1
F7
E3
01
ED
FA
07
0C
FC
FF
E7
17
0A
0F
08
EF
FF
E8
19
03
FB
0C
0B
FB
F4
0A
02
02
14
18
04
FF
FF
25
FE
F5
16
F4
DB
FC
04
E0
09
01
19
F6
00
0B
F9
05
0A
0C
0F
F1
F4
06
04
08
F0
F4
EF
F4
EF
18
E9
06
F2
0D
F7
F9
03
14
FD
07
F2
12
FE
16
FB
F7
FD
F3
22
05
EB
0B
FC
0F
F0
10
06
0D
01
27
F5
FE
FC
1D
02
E7
06
06
EB
05
18
CA
0B
02
0F
F9
F3
09
F2
0A
F9
18
00
EB
F2
0B
0B
1B
09
FF
01
FF
F1
13
E9
F7
F0
09
EE
F9
11
12
02
FB
F3
18
FB
F3
FC
FB
02
F0
2A
06
DD
05
F3
15
F1
09
FB
0D
07
15
FA
FD
F9
09
FC
ED
00
F8
FB
F6
22
C3
01
00
0F
F8
F0
11
F8
0A
07
0F
03
F9
EB
FA
09
08
F7
04
FC
00
00
17
ED
02
05
08
F7
F7
01
FC
FD
F0
F1
10
F5
F0
08
01
03
08
13
F7
E2
0C
F5
1B
F4
02
05
06
FA
F8
EB
03
03
05
FC
F1
E5
F4
07
FD
26
B2
0B
EE
08
0A
EF
08
08
06
00
0A
ED
05
FE
F7
00
09
F9
01
F6
F3
07
1B
05
F4
FA
11
09
F4
06
D5
07
EE
09
14
FC
F5
F6
0D
FF
14
00
00
E2
02
F8
12
E3
03
07
0D
05
E8
EA
0D
1A
04
FD
06
DA
02
0C
FC
19
9A
05
F8
04
FA
FC
16
0B
FE
11
F9
EC
04
0F
F4
09
00
FF
0B
0D
FF
08
31
0A
ED
1D
FF
0C
05
F7
C0
FF
EF
04
14
17
FC
E4
16
09
1B
04
F4
D7
FD
F3
00
E4
03
11
01
F1
E7
F0
FE
21
FE
F6
02
E5
03
25
02
F8
A5
0B
E6
FF
F0
0A
19
F8
11
09
EB
E9
0B
0C
E6
E9
09
F2
01
1C
F5
FC
3D
0C
E2
0D
F6
02
15
F0
CF
F4
F4
EE
14
10
07
F2
0D
FF
27
02
03
F4
E5
05
FA
E8
05
05
E8
F4
F4
04
14
15
E5
FB
0A
FE
FD
27
01
EE
C1
EF
EB
01
FA
1A
0A
F4
04
05
EC
F3
03
FA
F5
F5
FD
EE
F1
28
ED
F9
28
FB
C4
0B
F6
FC
12
EF
12
F3
E4
FC
0B
02
0C
F8
02
00
13
FA
F5
09
E8
07
EB
F3
01
FB
F0
F7
F8
FB
00
06
DF
06
12
0E
06
24
04
EB
EE
DD
FB
FB
01
16
FC
EE
FD
FC
FE
EF
FB
EF
03
F9
01
FA
EC
25
EE
FF
16
00
D8
14
EE
00
0B
E1
30
F6
F9
F3
0C
0C
0A
FB
01
0A
FE
04
FF
FD
EA
FC
E9
FC
05
FD
03
F6
00
F0
F1
FD
EC
18
26
17
FE
0E
FC
EE
00
DB
03
F7
04
0E
F9
EB
FB
F5
FE
02
F3
E5
10
04
0C
F3
F0
11
E6
1A
07
00
04
FE
F1
FA
02
E6
27
EE
08
FA
F7
0E
04
05
10
10
F5
0F
05
03
EF
FB
EF
FB
F5
0F
1A
F9
FA
FF
F1
FB
F5
2A
2C
12
FD
F7
F2
14
12
E1
09
F5
04
FD
08
EA
FD
E5
F3
00
F5
E0
0F
FB
00
F8
E9
15
FA
0D
12
F7
16
FB
F3
F7
08
EB
04
FC
07
F4
0B
07
F6
FE
05
07
EF
03
08
F8
D5
F8
FD
08
F2
06
15
06
F0
F6
F6
05
05
1F
1E
14
08
D7
00
21
FA
E0
FB
FD
04
F4
01
F8
FB
E5
F8
00
F2
F3
0B
08
F9
F5
FD
0C
FC
0B
16
FA
2B
F3
06
E9
12
E3
F9
FA
0C
FF
05
F2
F4
07
FD
0A
F7
FE
F2
06
CE
05
F3
09
FA
09
16
07
F3
10
F9
09
0B
13
10
10
08
D4
F1
15
FA
D8
FF
00
FF
02
09
02
04
F4
02
06
FA
F7
01
07
EB
FA
02
03
F3
00
02
FA
1F
0B
10
F5
1C
E8
F7
FB
0F
F0
FE
FA
00
04
FD
03
F3
EA
F0
F3
D7
FC
DE
14
F8
11
21
0C
EC
0C
0B
FF
17
F9
E4
09
13
D1
03
1B
F2
D6
FF
09
F7
09
02
F3
09
EE
02
01
F2
F6
FB
05
F7
03
11
0E
FA
F5
0A
FE
23
02
0E
F1
07
F0
EF
FC
09
F3
06
EF
F4
FA
E5
F3
0B
F8
F4
F5
E6
0E
EC
14
05
0B
15
10
FC
14
0C
F7
0F
E4
C9
01
00
DA
01
1C
F3
DD
0A
FC
FB
08
FF
F7
FE
E5
FF
FA
FD
DF
07
FA
F1
05
01
1D
E4
E3
0B
F8
1F
12
1B
FE
02
E1
F9
F9
0A
EC
FE
FB
09
E5
E4
EE
03
F8
F0
F2
E1
12
02
1C
F9
21
15
11
F6
0C
10
FB
0C
F5
BE
F5
07
E6
13
0D
F9
E0
07
FE
FA
FF
02
EB
F3
D8
F7
0A
0B
E9
0D
FC
F0
03
F3
16
EF
F1
00
EE
02
13
04
F4
F4
FB
EE
DF
0E
E9
15
01
1A
FE
D7
E9
F3
F8
0A
ED
D4
07
01
0B
01
03
06
18
03
07
1B
07
0B
E1
DC
F2
F8
E5
0F
06
ED
D3
F9
F8
01
0C
F6
EF
FD
EE
EB
F6
14
DD
FE
03
EB
06
E6
1C
FF
F0
09
EE
F7
0A
1A
09
E3
F9
F6
EC
18
F3
16
0C
21
18
DD
E7
02
05
08
F6
D7
19
1C
E7
13
03
FF
21
03
E7
06
FA
0D
D2
D6
FB
E5
F3
12
15
E5
D7
F8
FD
FA
16
FD
F4
FD
00
11
ED
1E
FD
14
01
DC
21
DC
1F
FE
F4
0B
00
F0
E5
18
0F
01
00
F0
1D
FD
0A
FE
0F
01
0B
E9
F2
F5
10
E7
ED
E4
05
1A
04
07
F8
FB
2D
F0
F5
DE
FE
FF
E8
E8
F0
E9
F2
F6
15
F6
FB
F4
0E
F5
02
02
E4
0E
05
15
FD
1B
03
18
02
F8
01
E5
18
13
F1
02
F2
CD
FA
1C
0E
F4
0D
F5
06
F9
03
0D
14
F4
13
F5
E2
FE
0E
F9
F8
0E
05
13
05
22
EF
E9
19
E9
FB
F1
07
F5
F3
EE
DF
EA
03
E5
11
02
0C
F1
16
F3
13
09
DE
10
11
06
F6
13
EE
16
0B
EF
FA
F6
F8
EB
02
03
FF
F7
FA
F4
0D
FC
F9
0B
14
F7
04
02
F4
FF
FB
FB
F1
0E
18
F8
F4
14
F2
F6
10
F5
0C
04
F4
E5
F4
03
F6
02
0D
F9
F0
0F
09
FF
13
15
08
0B
FA
F5
EF
01
FB
06
F4
00
04
FA
07
EF
FD
04
E8
FB
FC
FB
F2
0B
F4
02
14
FD
F2
0C
F6
00
15
FD
00
F2
12
11
FA
0C
16
09
0B
FD
FF
07
FF
F1
F9
11
12
13
0E
07
03
03
FE
06
F5
F0
FA
11
06
04
0F
FF
06
FD
F6
FB
0E
0D
01
12
04
0D
04
F0
F9
F6
F4
FA
FF
F7
08
00
EB
14
0F
F8
0E
08
08
02
FE
14
FB
FF
F6
ED
09
1D
F4
13
1F
F3
0A
09
07
07
FF
02
0C
EF
1C
1B
F2
07
0F
03
02
EF
EC
E8
01
05
20
17
19
04
0D
02
EF
EE
0B
08
F0
14
00
F5
F9
08
F8
F3
EE
FC
06
F2
05
F9
EF
09
E6
F9
14
F4
F1
05
FA
0F
16
FB
03
FC
0B
21
FB
07
17
00
02
EF
00
0F
F4
F7
EF
07
16
14
0A
F2
07
09
07
0C
00
00
FB
25
1F
11
07
F5
03
02
F4
FD
03
FD
03
03
02
0B
F6
04
07
F8
FA
05
02
FC
09
05
09
03
04
FA
11
EC
EA
14
EE
07
F0
01
FF
FF
0D
0B
FF
12
07
E2
F6
02
EF
FA
08
E9
F1
FF
1A
01
0A
E7
EC
06
07
15
08
FE
FF
10
11
00
F8
F4
EB
F0
F9
13
07
07
F4
06
F9
F5
02
F0
F3
FA
FD
06
08
ED
01
0E
02
FC
F7
FA
F9
EA
F4
13
F6
06
03
EB
E3
15
0F
09
FE
20
F0
FB
1B
F9
F2
FF
05
E8
F2
08
FC
01
12
E0
01
F6
10
1C
F3
06
F2
07
FD
06
FE
EA
F9
00
D8
16
0B
0D
F8
F9
0F
0E
F0
F8
F0
00
0B
FF
E6
FE
E2
FF
01
FD
FC
0B
F6
FC
F2
08
09
0E
02
F7
EF
14
EB
09
19
17
F3
F0
24
03
EE
0C
08
E3
E9
15
FD
08
10
FC
FA
ED
F8
13
01
F0
09
F9
F2
10
F9
E3
0A
02
DD
21
07
0F
FB
F0
FD
19
FD
FD
02
05
20
04
F5
FD
EE
01
10
07
FD
01
F3
0A
F6
FA
0C
F9
FD
F8
F5
0C
F2
01
15
0C
02
EE
1A
00
D6
12
F9
E6
EA
14
FE
14
13
09
03
F7
FC
0F
01
DD
12
FC
ED
13
FE
DF
05
05
EE
0E
00
07
04
FE
02
1B
F4
E4
FE
1C
0E
FB
0E
F6
E4
FB
0F
0E
F7
07
EF
05
FC
04
05
F3
F9
F7
F9
0D
F5
0A
0F
E5
FD
E4
10
0B
EA
07
0C
FC
F9
0D
0D
03
0E
13
0E
0F
FF
13
04
EC
14
03
F4
1C
01
BD
09
09
FF
FE
06
09
FC
0B
FF
17
FB
E5
E5
0F
0C
F7
03
06
FA
ED
FA
05
F7
04
F0
00
F8
01
FC
03
FC
02
F4
07
FB
07
0E
F7
02
EF
13
01
EF
03
0B
FC
FE
07
06
0D
17
20
FA
05
EC
08
08
EF
13
00
EC
0D
02
BE
F9
FB
09
07
F9
00
08
03
F4
27
E6
EB
ED
17
19
0C
03
FC
F3
F0
F3
09
E4
04
F2
02
F3
FB
06
0C
F9
FC
FE
09
EF
14
0C
F8
00
00
1A
01
EA
FD
F5
03
F8
08
07
11
1D
25
FD
00
F3
0A
FF
F3
FF
10
FF
05
18
A3
00
FE
01
10
02
F4
01
F8
FF
2A
D7
F8
EA
FD
11
07
0D
01
E6
E9
F6
04
E9
FE
0A
04
FE
FA
F5
FD
FF
00
09
09
F8
0B
03
FF
03
0C
0A
F8
E9
FA
EE
1B
FE
03
08
12
13
0F
EE
F8
F2
01
03
FE
F2
0B
0F
F9
1F
AE
04
EB
FF
FC
FB
F1
02
F7
FB
29
D6
03
FD
00
F7
17
06
0C
EE
EE
F4
11
F8
01
0D
03
0C
04
F4
E8
F8
00
0C
0E
02
F4
F6
0B
18
1B
0D
FA
F3
F1
E7
11
FB
02
0D
01
0A
F4
E1
FF
FB
EF
FF
05
EA
06
12
FD
2A
BA
01
F2
03
01
0B
F9
FA
03
01
16
E0
FE
F9
02
02
02
FF
06
E0
F2
02
0F
05
01
0E
09
13
05
FC
D3
05
F0
14
0A
02
E7
F5
1B
14
17
07
04
E3
F7
F7
15
EB
09
14
F8
FF
00
F1
FA
0A
E5
03
1C
E9
09
17
07
0F
C7
02
E5
11
05
13
EE
02
02
03
FE
D8
14
08
FB
FB
03
F1
F7
04
ED
F5
30
0F
FE
1B
FF
0D
10
04
D1
F9
04
00
14
06
F4
D7
2F
FA
13
FB
01
ED
EA
0E
17
DC
03
08
E1
EC
FA
06
FC
19
DF
0A
0E
F8
08
1F
10
FB
DD
FE
E7
08
F9
1E
EB
FD
00
11
F4
DA
0E
FD
F6
EE
F0
E6
F2
0E
FA
F5
2F
04
DB
10
06
F3
22
F7
FF
F0
F4
F6
1A
0C
01
ED
17
F4
16
F7
04
0A
F5
15
FF
E5
06
0B
E5
EC
F4
03
0C
0F
E0
16
15
05
0B
1C
09
E4
F3
E7
EC
12
04
2F
E4
F5
EB
0A
09
E9
0C
F8
F4
04
E4
F5
F7
26
F1
E8
0B
F6
D7
FE
FF
F0
1A
EC
1C
EC
F9
F9
09
FE
05
FA
08
04
23
0A
F7
04
FE
09
EA
FF
F8
01
F7
FE
FB
FB
EF
FE
EF
13
14
0B
05
0A
00
DF
04
F2
EC
18
04
19
E4
EC
E9
FD
07
FE
FF
ED
FF
04
03
F6
EC
19
FE
FE
FC
0F
DC
F8
F1
F1
08
F2
27
E8
00
EF
FE
F2
FE
F5
F2
15
18
0C
F7
FD
07
06
ED
F3
04
02
03
EF
06
F2
F0
FA
FF
16
1D
0A
04
F0
08
F9
04
FE
F0
09
FF
20
F5
F4
F1
E9
01
07
F8
F0
01
06
04
F9
FA
18
09
05
F9
FF
F8
F9
F0
FA
0E
EE
15
ED
FE
00
00
FB
F6
F0
03
18
F8
1A
FD
F6
08
0B
EB
07
E1
0B
0F
F5
FE
F6
F6
00
1B
2D
17
1D
0D
EA
FD
16
08
0A
F1
0E
0A
11
FE
F6
EE
E4
F1
FF
ED
F5
09
0B
FF
FA
FD
1A
08
13
0A
F6
1A
ED
FC
F2
06
02
03
E7
07
F6
00
F8
F8
F9
F6
1D
EB
18
02
EF
06
07
EF
09
F0
0A
17
08
F5
0C
F1
FF
13
1C
0B
0A
00
E9
00
1A
00
01
F9
0F
F9
17
FA
FF
FF
D9
06
FE
EB
F5
09
FE
02
EC
08
06
0D
0B
01
FB
1F
F1
0C
F1
01
02
F7
E7
03
F5
03
FD
F9
08
FD
19
EB
FF
FE
FA
F0
0C
FA
18
EC
11
15
0A
F1
14
F7
FD
1C
0A
FA
0B
0C
DB
F9
07
FC
F6
FD
09
01
0A
FE
F6
0A
DB
01
FA
E3
F3
0D
0D
F8
FE
0B
FC
0B
F9
06
FE
1B
FD
F5
D5
09
F2
ED
E6
05
E6
07
FF
F8
F7
F0
0E
E8
EF
F2
F9
F3
09
ED
1F
FD
04
13
04
F5
0F
04
01
19
0C
E0
13
04
F2
07
01
FB
E4
FA
04
02
04
02
05
09
D9
01
00
F6
FC
05
05
05
E9
11
01
0B
F4
09
F6
19
FE
0A
F0
F0
F4
FC
EB
07
E0
FF
E3
01
F0
E7
F5
05
ED
03
F8
F7
0E
F1
18
05
05
0F
05
F1
0D
0C
F7
0C
F9
CD
11
03
EF
11
0A
F2
EC
04
FB
FC
06
08
07
02
E3
07
F2
04
F3
01
FC
F2
F6
FF
0E
FE
EE
18
EF
16
07
17
DC
F9
E8
E9
DF
01
D6
14
F2
0A
EB
E7
EE
01
03
F7
0B
EE
0F
ED
1A
01
02
13
15
FC
0E
19
F5
19
FC
C2
06
02
F5
11
05
FE
E4
F9
E7
FE
03
F9
FC
F3
C0
0F
FD
03
DD
02
FA
FE
02
EE
1A
10
E8
05
ED
FF
05
0E
F3
EA
E6
EF
DB
07
D0
13
F5
FE
FB
F0
DB
FE
F1
FD
EA
F0
18
11
0F
04
02
0B
0E
FE
F9
11
F2
06
E2
DB
0F
F7
E5
1D
06
01
D2
FE
ED
07
0C
FB
FA
EF
C5
FF
FD
1A
F1
FC
00
FD
FA
ED
18
0D
E7
10
DE
F7
12
0F
EC
D9
FD
DE
CC
0F
DD
25
FA
1A
0D
D1
DC
F7
01
12
E7
DC
0E
31
EF
12
F8
17
1A
F9
E8
0F
0E
EA
D5
DE
03
D7
D7
10
05
FB
D0
FF
F2
F6
11
FE
EB
FF
DB
04
07
21
E5
06
09
F0
18
E8
21
0E
02
04
F5
EA
F3
19
FF
F3
01
ED
F7
05
FB
1C
FE
FD
1F
EB
D4
F0
02
08
F1
DB
16
13
FC
26
F3
09
22
EE
DD
F7
04
F8
E0
F9
E7
D6
DE
F3
08
FE
F5
F3
12
05
02
00
DA
03
04
05
11
1A
EA
17
22
E4
0A
FF
1F
0A
F8
FB
DB
EE
FE
1B
09
03
08
EA
02
FB
F0
29
13
E8
1A
ED
D3
F4
FB
FB
E8
F8
0A
26
00
1C
01
01
27
F0
0C
03
19
DC
02
00
E9
FC
EE
FA
1F
EF
FC
E7
0D
05
FB
20
E3
05
0B
0E
E9
22
F6
1C
22
F8
F8
F4
08
08
F8
0D
FB
F4
F0
FF
08
0A
EF
03
FE
FC
04
01
F4
10
F2
0E
F2
0D
0E
E9
0D
F7
06
FB
04
01
03
07
06
ED
06
FB
03
FE
18
F6
09
FC
06
FB
0C
0D
01
08
F7
E4
11
06
FD
F8
03
FF
0C
F3
F0
F0
FD
07
E5
F0
F7
F6
F9
FB
06
FB
00
04
03
FC
F3
03
06
F9
00
F9
05
07
F9
02
07
00
07
F5
06
07
03
FE
F6
0C
FE
05
06
02
08
FF
FB
05
FC
F9
00
0E
FA
07
07
03
FC
03
07
FB
FC
0A
FA
08
F9
07
02
03
02
F8
03
00
06
FC
FE
EC
E0
1F
0C
EE
0F
F6
03
1E
FD
07
11
FC
FE
F8
11
21
FA
13
17
00
13
ED
FA
12
02
FD
E6
0E
16
21
F0
EE
08
ED
05
0C
F4
E6
F8
19
10
19
1A
FC
10
F6
EF
F1
05
14
FE
07
EF
1D
08
03
F9
E2
E2
E9
08
F0
FE
F5
F6
07
E9
08
06
F1
01
09
F5
13
1A
F2
FD
FE
FE
25
F5
06
08
01
0A
02
07
06
06
FD
F4
05
04
0F
10
F2
04
0C
FC
FF
0F
FA
12
24
1D
11
08
EB
0C
FF
FE
F7
09
15
FE
04
F5
17
F0
0E
02
F0
FA
F2
09
09
03
0D
07
02
EC
F5
08
FC
ED
11
FC
03
F9
F4
EF
0D
05
16
F4
19
06
FD
F1
F5
00
FC
E7
E9
FC
10
1C
F5
08
F1
F8
0C
08
0A
10
F8
10
11
05
16
F7
E2
07
F6
F2
13
07
F3
E4
EC
02
0B
F1
01
F7
09
0E
03
F0
F9
09
15
08
14
F3
08
FE
EE
FB
15
FC
00
FE
F4
EB
23
F7
04
F8
0B
F9
F8
0C
EE
E5
14
F6
EE
0F
09
FE
04
12
E3
05
03
FB
18
FF
03
FE
04
F6
04
ED
D3
09
F5
E3
13
0C
FE
F4
EB
09
0A
DF
09
F5
0A
08
05
F6
11
F0
FB
FA
FD
F2
0C
FB
F6
F8
00
04
FE
05
EB
F1
19
EB
02
0C
10
DE
EB
FD
F8
E4
10
E8
E4
E5
08
10
08
17
F5
20
07
0E
0C
FE
EB
06
FD
F4
06
F8
C9
07
F9
E5
0E
09
0C
F8
E7
03
1F
D6
F3
F9
12
0F
FB
FD
08
EE
FC
12
01
ED
06
FD
05
F9
FC
03
0C
0A
01
FC
05
F1
0E
0F
FC
E7
E3
F7
06
DD
0B
02
E2
F8
F4
0D
0E
0A
FE
03
12
FD
FF
07
E6
15
02
EF
12
07
C6
F8
00
EE
04
01
0B
02
E9
05
0D
C5
E9
F8
0D
FA
15
08
0D
F4
FC
0D
0C
F3
FC
02
0F
EA
02
09
0D
FF
F1
FD
0D
F4
10
1B
FA
F7
ED
FD
0A
E9
00
02
FD
00
0F
07
09
15
0B
FE
12
F2
F8
13
E8
09
04
F5
08
09
BB
04
FB
EE
07
16
03
14
F3
00
18
CD
F6
E2
14
0A
02
0A
FB
EC
F1
F8
0C
FC
02
FB
00
04
06
0D
0D
0A
FD
05
F5
F0
11
17
F8
00
FB
08
FF
F9
FF
08
FC
F9
15
F5
12
1F
0F
F4
08
F6
F5
07
F8
06
03
01
0B
15
B7
14
F8
F1
FC
12
01
09
FD
08
2C
C4
F7
EB
02
04
06
01
0A
06
F2
FA
08
F5
0A
07
FC
FF
FC
07
FC
F9
FC
0C
F2
F2
0F
08
FE
FB
EF
FB
02
ED
FB
FE
FF
07
0D
06
11
1C
20
DD
0A
FB
F0
05
04
07
07
12
06
17
B3
FC
F3
02
0F
17
FF
06
F1
06
2D
B8
F9
F9
FF
FB
04
0F
02
FA
EF
01
FE
00
04
1B
FC
12
01
FB
FA
FF
FF
12
EF
F2
0D
05
F7
19
04
E5
FF
03
03
FE
06
05
FE
0A
0A
1E
09
E2
08
F4
F5
FE
05
F5
0E
16
F1
29
E5
05
E2
09
07
0C
E4
05
EF
0B
13
D8
08
F4
F9
FA
0F
FF
FF
E0
E7
FC
07
15
04
17
06
12
03
FF
E7
FF
00
14
F9
F1
FA
FF
11
25
07
F3
02
0D
EC
06
1F
FA
F2
0D
EC
0D
06
ED
07
02
DC
0A
0F
F4
12
0B
00
31
FA
0F
E0
0A
FF
06
E3
04
EC
0C
0D
D8
0D
01
F5
F2
F7
0A
FE
EF
E8
03
06
22
03
1B
12
07
06
11
F0
FE
FA
0D
F7
F1
E2
F4
22
1A
0F
F3
14
03
E7
0C
1F
EF
F0
13
D7
00
0D
04
FB
21
D9
02
10
EA
10
0C
F4
11
07
04
F5
16
F7
04
E8
F5
DD
06
F4
E7
15
03
F8
F8
E0
FC
E4
F2
E6
F0
11
1F
FF
10
0B
03
FE
09
F2
F0
03
05
08
FA
E0
E9
1F
01
06
EC
15
09
E0
1C
1C
DC
F0
09
D1
F7
FA
1A
F5
25
E7
0B
11
F7
0D
12
FD
EE
08
00
E6
14
F6
20
C8
FC
E1
06
F5
EA
23
04
01
09
DC
F6
E8
1A
0A
F0
09
05
DE
06
F3
ED
17
FE
09
FA
03
FE
19
F9
F7
E5
1B
F8
18
FA
05
0B
EE
1B
02
04
FB
FA
EC
F2
E7
13
F2
0F
FA
11
16
F5
0E
0E
06
D8
07
FC
E8
2E
07
26
D9
FD
F1
01
F9
F8
0B
03
F5
09
F1
F3
01
21
00
F2
F5
F2
D0
00
FB
E8
1F
FE
1B
FC
FC
FA
14
ED
0E
F6
06
0C
26
FF
F3
0B
0F
0D
EF
02
00
09
04
FF
F5
EF
F7
12
0B
0C
11
FB
15
08
0A
DF
0C
F4
F3
26
09
21
E5
F3
F1
F4
06
F7
11
F9
F6
0F
FD
ED
11
06
04
F4
ED
0D
E1
EF
FB
DF
0F
F5
20
00
FF
00
FD
E8
0A
05
F6
0F
13
0E
FE
05
09
0D
EA
FE
FB
FD
1B
F4
FB
FD
F3
06
1E
1E
FF
04
11
0A
0A
FE
0F
FB
F1
13
0D
1B
EB
FB
F9
E1
FC
06
04
FC
F8
15
07
ED
FC
FE
11
09
F2
FE
F6
F7
02
F5
03
FE
16
FC
FE
04
0C
09
F8
FF
00
0F
05
1B
F9
FE
0A
08
FB
F8
FB
11
10
F7
FC
07
09
FF
1A
21
0A
09
00
00
00
11
F5
02
F1
0F
0B
14
F9
FE
05
DF
F8
FB
01
F9
F6
09
FF
F4
06
0B
18
08
F6
F4
01
EE
FF
EE
01
10
03
F9
01
0B
FC
FD
EA
F9
FD
1C
03
0E
F7
FB
0F
03
F7
07
E3
0B
00
01
02
08
F7
01
22
25
FC
03
0E
04
05
0D
FC
09
FD
0A
FC
17
F7
FA
09
D9
09
FD
DC
FE
0E
0B
08
FA
12
00
06
0E
F5
07
23
EB
00
E3
06
F9
F4
F6
FB
FB
07
F3
F2
08
EA
27
E4
00
F5
F9
FB
F4
F2
21
F3
18
03
03
0A
0E
07
FF
1E
09
00
10
02
F5
04
07
EC
FB
FB
03
0B
1C
FC
05
03
D7
09
EE
DD
07
23
0F
FD
FC
08
EC
02
01
05
FB
26
EF
07
E7
F9
F2
F9
E9
F0
EA
0C
FF
F2
04
E0
0C
ED
EA
F6
01
0E
02
07
15
FE
0D
FD
06
F5
1B
06
00
19
06
E1
03
04
FB
09
FA
F1
FD
F0
F7
F5
1D
FC
02
FE
DD
FD
FE
03
F9
14
0B
09
09
09
E7
00
FD
F3
F5
28
E8
19
E2
F8
E1
14
E4
FC
DB
08
EE
F4
01
DB
F6
0C
EE
09
0D
0B
FE
F9
0B
06
06
05
0F
00
15
0E
04
0C
01
CE
16
04
F4
0F
02
F2
FE
FF
F3
08
0C
F0
05
FA
DD
05
F5
F6
F2
07
0D
02
07
01
F7
02
FC
0B
FA
17
F9
05
DB
F2
DB
07
EA
F1
DF
03
E6
FC
F8
E2
F3
F7
EF
0E
0B
03
15
F2
11
F8
12
06
07
07
10
20
FE
FD
F1
C8
11
17
FA
18
01
F7
02
07
F4
06
FF
F0
FB
EE
D6
0C
EB
EB
F6
FD
07
01
08
EE
FB
FA
F2
F8
EE
11
0A
00
E0
F3
E2
F5
E3
F1
D8
1F
E4
FA
FD
F3
D5
FB
F7
1A
F1
06
0D
00
05
FB
03
14
1D
07
F8
26
F6
F6
F0
D7
14
0C
E8
24
FF
FB
F4
FB
E3
16
02
F1
0C
F0
C7
FA
F3
FF
ED
F4
0D
1E
07
ED
FC
04
FE
F4
EF
04
07
0C
DE
CC
F6
FA
CE
02
E2
0E
EA
12
0D
F2
D0
F5
F1
27
0B
D7
04
05
E1
10
0F
16
12
02
F5
23
05
F1
E3
FA
0E
EA
F1
1B
07
10
DC
F6
DA
15
09
F0
EA
01
C0
FE
0B
05
E6
DA
07
02
0D
F3
19
02
04
22
02
F6
FE
06
EA
F8
FD
05
E8
09
02
04
E7
09
08
E8
DE
0F
0A
01
11
DE
18
F3
E2
26
F4
FC
02
E7
E0
F0
08
F6
F0
05
F0
DC
05
E8
04
09
EA
02
F6
00
0A
FD
E0
0B
E4
11
1C
E4
DC
FC
07
DE
F7
F0
1C
0A
09
1C
00
FA
EC
0A
FA
F9
EC
FA
FF
09
FD
13
04
F1
FC
FC
E4
00
04
D9
00
F2
0D
07
E4
1E
ED
02
11
DB
E9
ED
04
F6
EB
04
DA
EA
F2
F0
13
F9
07
E6
FE
F5
FF
0F
D6
F1
07
23
06
F7
EB
21
09
FA
EB
F3
00
0B
F8
0F
00
03
E8
ED
0B
09
01
02
00
FD
10
FF
EE
16
F6
FF
F6
0F
0B
F3
0B
F5
FE
F2
F0
FF
EF
0B
FB
F3
EF
15
F4
10
0C
F3
0A
F8
0C
01
FC
F2
F5
05
EE
FA
13
FB
F1
EF
FC
0D
FB
E9
EC
FC
EA
00
E4
FC
08
13
05
04
0E
FA
FB
F8
09
ED
0B
06
FB
F9
F4
0B
FD
0C
FE
08
02
0A
0E
08
02
FC
09
06
0E
EA
F4
09
FF
F8
0E
04
04
EA
06
0B
00
EE
09
F8
09
01
03
05
08
ED
0D
0B
14
F5
09
F7
F1
14
FF
FC
F1
02
FB
10
02
EE
F8
0E
10
04
11
07
10
0F
E7
0C
0C
F4
FB
FF
02
11
0A
07
13
07
0F
06
F9
0A
06
EF
EB
07
18
0F
08
05
25
F1
0B
FB
F8
FE
F3
0E
14
0D
1C
F1
0D
11
FA
F9
F6
0D
F8
19
FB
12
0B
07
FA
F7
F3
EF
12
F5
ED
08
FA
11
F7
01
03
F9
09
11
EC
05
1B
E5
EF
F6
0F
1D
ED
0B
22
1B
1E
F4
0C
07
FF
F9
E2
16
19
1A
F5
F1
0D
F5
F5
07
FE
F7
F8
1D
1D
1E
20
ED
02
0E
EE
F5
1A
15
FB
16
F3
0F
06
FB
F5
E3
E6
EB
FC
E3
0B
13
04
14
DF
FF
10
F6
FA
0E
FC
13
07
F8
FB
0A
00
1F
F5
1B
10
FA
F2
FC
F5
FA
E3
F3
FB
0D
12
F5
FE
F4
FE
0C
FF
F3
0F
02
21
01
04
17
F9
F0
06
09
E8
F4
0F
FF
E8
F8
0E
FD
D3
01
FA
FC
F9
F6
F5
F6
01
03
F9
12
E9
0F
01
E0
08
14
FF
13
09
FE
06
0C
EC
F9
F1
0C
05
0B
F0
FA
DA
07
EA
E9
FE
EC
FA
0D
01
ED
0C
11
E9
06
18
E9
16
16
FB
11
EB
C3
10
FF
F0
F0
12
FC
F8
D6
F8
14
CA
E0
0A
1E
F9
18
EC
02
ED
FA
05
0B
FA
01
0F
00
FD
03
F9
0E
04
EF
FD
09
EC
10
0D
05
E9
F2
F4
00
E7
04
EE
F7
F3
04
FB
0F
14
F0
16
04
F5
FE
F4
E9
0F
04
F9
09
12
C2
08
FF
D6
06
0D
04
FE
DC
00
18
AF
EB
F7
19
07
0F
FE
F5
F9
EB
0B
04
05
12
0B
05
01
08
02
0D
06
FF
04
F6
E9
16
09
01
EF
EE
EB
16
F0
FA
F9
E4
04
F7
00
0C
0A
F5
FC
0C
F8
FA
0C
FD
0A
F4
F6
08
17
C3
00
EC
D5
07
15
F2
0B
E8
FF
05
AB
EB
F8
09
FF
11
12
F3
04
F6
07
04
EF
05
F9
0E
FC
04
02
03
11
07
0E
0D
FA
13
22
E7
FD
F6
EE
FF
F6
0E
08
F1
02
F4
07
03
1F
11
F9
FF
EF
EA
15
06
02
F1
F3
07
14
DA
02
F1
E9
E9
05
F6
1E
EF
06
0C
B6
04
F3
11
FB
14
15
07
FD
EF
07
FC
F6
13
11
08
FE
FE
0A
F9
F2
0A
10
FF
FF
06
1B
EE
06
F2
EE
06
FD
ED
02
EC
01
00
03
19
21
10
F0
FE
F0
EC
17
01
05
0A
02
0C
13
ED
03
E6
F0
07
0E
FA
1D
EE
FA
16
B8
08
FE
F7
FE
0D
06
0D
01
FB
0C
F6
FB
09
0E
04
06
07
00
ED
EB
08
0E
EF
FE
1D
10
05
05
F0
E7
0D
FE
F3
FF
04
FA
07
04
03
2C
18
E1
02
F6
E5
02
FA
0A
02
0F
0D
23
FE
01
EF
FF
01
0F
F2
0D
E8
00
13
CA
02
F1
EB
FB
FC
0B
01
00
F7
01
0B
16
04
15
0B
10
04
07
F2
F4
00
15
E6
F2
03
10
03
23
F8
E9
09
17
FD
0F
18
06
F6
10
E5
2A
15
ED
02
F2
ED
09
08
13
0F
0B
10
1F
07
FA
E9
00
07
09
E4
0B
E7
04
1F
E0
01
FF
FE
F1
F8
1B
F9
FD
E2
FE
04
21
F6
11
08
09
F8
03
EB
F3
FA
0B
F4
F0
E9
06
17
21
FF
E4
FC
10
E8
09
22
01
04
17
CE
24
0C
F9
02
09
E6
08
09
EE
07
09
03
1E
10
0D
EC
15
FC
00
E7
00
E4
13
0D
F0
05
FB
FD
F9
ED
08
FD
F1
F6
0E
FE
2E
F4
03
08
FE
FD
05
E4
FD
FD
03
F7
EB
E4
00
0B
0A
FC
DB
08
1E
EC
19
1A
F0
F8
08
D3
1C
0C
0C
F3
1F
E4
00
19
FA
FF
FF
F4
F4
0C
01
F5
1A
FE
05
D5
F1
EE
0F
01
F7
1E
08
04
03
E6
07
01
06
11
05
02
1C
E9
05
FB
FD
FB
FB
FE
F2
04
0F
0E
F2
E3
08
12
F4
05
EC
0F
15
E9
25
0D
F4
04
0A
E7
07
FB
13
01
13
F2
0D
17
EA
FE
0B
FD
DD
10
FD
FE
25
0E
0C
F1
FA
EE
FD
FE
02
1D
04
0E
19
ED
F6
0B
08
20
F7
FA
FC
DD
F8
F1
E8
0D
04
06
F1
0E
05
09
F4
F7
F7
11
EF
0C
03
01
02
02
14
FF
08
FA
F5
F8
01
E9
03
01
13
08
0A
11
F1
01
15
01
D3
0A
00
FF
2D
15
0E
F2
FC
FB
04
F6
17
1B
04
FB
1A
04
02
1A
FD
11
F4
EE
EC
DA
E7
06
DB
14
01
11
0B
02
01
03
E8
07
0C
FC
05
1F
FF
00
0E
06
15
F7
FE
02
FD
06
01
FB
F9
06
1C
0F
0D
13
F0
11
09
0E
D9
FB
F4
EE
1F
15
0E
E9
09
FD
F3
07
FA
15
03
F9
1C
06
FD
14
F2
0A
FB
EB
00
DF
E9
02
E5
07
FE
18
12
F9
1B
FA
EC
EF
02
FD
07
22
05
FE
02
FD
07
F2
F9
FC
05
05
FE
08
F1
01
0A
29
0B
0F
00
12
07
04
F5
00
FB
EF
1A
0C
0A
E7
11
02
E8
04
F9
0B
FD
ED
10
FD
F9
08
06
06
07
F3
FB
02
F4
05
FE
FD
FC
13
0E
F8
17
04
FB
FA
01
FC
13
09
17
FE
F3
03
FD
FF
02
EC
01
04
FA
02
0D
FD
07
1D
19
10
06
01
10
FA
09
F6
FC
EB
14
FD
0A
FC
12
FE
ED
01
FC
08
00
F1
08
FD
F4
01
FF
02
0B
F3
FF
13
FF
06
F9
F4
0E
02
FD
F6
00
03
07
F2
FF
FF
20
02
0E
05
00
FE
09
FC
FE
F5
14
F8
FA
04
FF
03
07
22
1B
05
F9
06
03
FD
FD
F7
04
F1
0A
0D
0F
FB
02
05
FB
FD
F9
DF
FF
0E
05
0E
0B
04
FB
FC
07
F7
FC
19
EB
0B
E8
EF
03
09
FB
F8
F9
07
FD
E6
F8
EC
21
DD
E6
09
0D
FD
FE
FE
11
00
0B
F8
01
14
FF
FF
F3
21
FD
F5
0F
07
F3
09
F5
F4
FF
F5
FE
01
20
F0
05
06
08
01
F0
DD
0A
16
18
0C
03
04
F4
F5
07
FB
ED
13
EE
03
E4
00
E6
13
00
EF
00
FB
F3
FC
FB
EA
0E
EC
E0
F7
10
0C
F6
15
13
07
05
F8
13
05
0A
04
FF
12
0E
EB
02
04
00
01
F4
F3
07
E4
FC
05
1D
EE
FE
F8
FA
14
FA
F1
08
11
0D
05
FC
F7
DF
FD
0C
F7
E0
20
EB
09
E8
EE
E8
2B
FA
E9
ED
FD
F8
FC
01
E2
01
FE
F4
FA
10
03
05
03
07
FA
0F
03
00
11
00
16
F1
12
00
E2
08
09
FB
0F
FE
0A
15
01
F2
03
0F
F3
00
F8
EC
0C
03
E5
02
00
06
07
09
F5
E0
02
00
FF
FC
20
F1
09
EE
ED
DB
16
E0
F5
D8
15
E8
0C
00
E8
EB
EB
07
1A
10
01
FE
0F
FD
07
06
05
08
0E
F9
1A
F7
F8
FD
EB
16
01
FA
1D
FF
F5
0E
FD
E9
10
FE
F4
0C
F8
EC
07
F8
E3
F9
03
02
05
0B
FA
E7
04
F6
02
0B
09
11
12
FD
EC
ED
00
E5
FF
D8
02
F0
14
0E
EB
E5
F4
FD
2B
15
FE
F2
F6
EC
FE
F9
17
FC
FA
F4
14
F7
FE
EC
F0
0C
F7
FD
11
FF
00
FD
FC
F2
0A
1D
E6
04
F1
D9
F9
FA
E7
EA
F2
FD
0E
26
EF
F6
07
0B
19
08
F7
14
F9
E2
EA
F4
EC
E1
FF
F8
F9
FD
0A
F8
E7
EA
16
F4
20
1F
F6
ED
FB
DA
16
F1
19
03
F1
F0
0C
FE
FC
DD
0C
0C
D6
F5
0B
11
04
FD
01
F7
19
0E
00
E7
EF
C7
FE
06
E7
D4
ED
FB
FE
0D
EE
02
FE
0D
1D
0F
09
FA
08
E9
05
F8
FA
E8
05
FD
F9
EB
14
0A
E6
E5
1E
02
04
1C
E5
FA
F1
ED
0C
F9
02
FA
DF
FC
F9
03
EC
FE
19
FD
E1
FC
F4
03
08
EA
02
F8
0E
FC
FA
D1
00
E6
02
0F
D8
E1
F2
00
E5
F9
F7
FE
FF
0F
20
1C
10
E4
F9
06
FD
0C
F1
F5
F4
FB
16
F1
FA
15
F1
E5
19
12
EA
10
FD
00
ED
F5
2C
F0
F4
FD
D9
F1
F5
0F
E6
EA
12
