08
11
D2
1A
C7
38
F5
EF
0E
01
E1
17
09
06
C7
11
05
FD
0A
0A
FA
00
10
04
0F
F9
E5
D6
02
F1
14
06
25
F2
D0
23
C1
24
C6
14
11
FB
24
F4
F5
F5
09
D5
B4
D9
0E
2A
1E
E1
29
B2
DE
07
EC
18
1D
C8
02
16
CD
03
0B
0C
F1
E6
FA
EB
F6
E9
19
05
F6
EE
0D
DE
06
E2
00
04
FC
0A
01
D8
C9
DB
E0
FF
F1
0E
F1
EE
C8
1A
06
0B
0D
1D
24
F3
DD
17
29
E4
15
14
03
50
DF
E3
4F
D7
10
13
CA
D5
A9
1B
EE
F6
1B
16
E6
17
E7
07
20
B7
F7
1A
9E
0A
06
C9
FE
F6
FA
01
21
1B
1C
25
06
0D
CA
17
F2
0D
0B
F5
D8
04
D1
F1
18
10
1C
0C
20
18
B2
16
DD
13
08
FA
20
3F
F3
CE
2F
E5
F6
23
16
BB
FD
F6
1E
E3
17
14
10
C9
16
06
EE
20
E3
19
0C
FD
1F
1E
1D
DA
2C
E6
03
D8
1E
F9
0B
27
D3
17
F4
19
1B
B0
25
E3
DC
2F
ED
27
EB
12
29
F5
D7
C7
AA
14
00
04
0F
09
05
02
02
F9
1D
CC
10
EC
E2
C9
22
F6
0E
F8
25
14
F1
BB
F8
25
D7
EF
CE
27
F7
13
D0
0E
E3
F6
81
22
19
0F
E9
E3
BB
33
12
10
D7
CC
08
27
17
FD
19
05
0E
0D
20
21
A4
EB
C3
F9
FB
13
E3
E0
15
F1
F7
0E
10
12
1B
FB
1B
E6
F6
13
1C
F6
F8
13
16
03
14
F8
E1
00
F6
F6
2E
2E
B8
FC
B2
FA
DA
18
10
25
B4
0A
19
0E
12
DC
ED
C8
19
06
18
D7
12
07
0D
1E
B8
0D
02
E9
0B
F7
19
D2
2A
F5
07
DF
C5
D9
0C
FC
20
14
E4
1B
FC
14
FA
FC
F4
F3
17
DE
DC
D1
FF
34
FF
B6
33
15
F8
10
0D
07
E8
F9
11
C7
C3
05
FD
22
DA
0C
0D
18
1A
DF
B4
DE
18
12
22
09
F4
DB
D8
E5
12
E8
EB
25
0C
F3
F0
0A
18
FC
13
19
0E
16
07
2A
0E
2A
1D
A1
FA
1F
D2
12
14
DA
E6
E7
F6
EE
09
04
08
02
0F
12
D3
F0
27
1E
02
43
DC
B3
D7
17
2E
2C
A6
E2
E0
38
CE
B5
DC
22
11
FD
DB
32
B9
FA
AA
01
14
1E
21
CF
E5
DD
06
1E
F5
B6
BF
E3
CF
1A
11
28
E4
BD
25
23
F7
F2
15
0E
08
ED
1A
FB
19
0A
D2
07
EC
15
C0
23
1D
FC
EB
AE
FB
08
27
03
DE
15
FA
02
00
C2
CB
12
E9
F2
08
EE
14
DE
FD
0C
04
DD
13
0B
BF
FF
DF
1E
13
ED
E8
1D
FE
FF
D6
1D
22
D6
02
DB
DF
DE
12
E0
0F
00
F3
15
14
0F
C2
06
1E
1D
D9
FF
D2
1D
EC
AB
F4
08
BA
D2
12
22
0F
DE
14
15
0B
C4
E6
F5
FC
1A
0F
FD
F1
10
14
CA
07
10
0F
1B
E9
02
0D
1D
E2
DC
08
01
FE
FD
E8
EA
13
07
13
BB
D3
24
01
1D
14
02
FB
11
18
D6
00
06
15
0D
1E
DF
0A
FA
00
01
16
00
CE
F1
15
CC
08
19
