00002398
FFFFEE6A
000003DB
000010CD
0000112B
FFFFE2A1
000003D4
00001151
00000943
000010D2
00000A34
FFFFEC8F
FFFFF699
00000958
00000BF9
00001840
00000CB2
000012B4
00000AE1
FFFFFB59
00000011
FFFFF640
00000B39
000013C2
FFFFFDA9
FFFFFD7B
FFFFFCF7
FFFFF685
00001602
0000092B
FFFFE9F1
000001A7
FFFFFFBC
FFFFF01D
000003B4
000000BB
0000071C
000001F3
00000802
00000652
00000785
000021E9
FFFFEC8E
FFFFF330
000016EC
0000088E
00000915
00001BFB
FFFFF824
FFFFF881
FFFFF696
000006AB
FFFFF4A4
00000A06
FFFFE979
000008CF
0000031D
00000646
FFFFF00F
000003A5
0000036E
FFFFFEA3
000019E8
00000F7E
