F6
F8
F7
08
04
00
03
03
F6
FF
F6
FA
07
FC
04
FE
FE
F7
FA
FB
07
F8
01
09
06
F6
07
08
FD
F7
F8
08
FE
FE
F4
ED
00
05
10
FD
04
F5
01
EF
F6
FE
0A
07
0E
FB
EE
FF
02
FD
03
F8
04
06
08
F4
FD
11
FD
05
07
0C
18
14
16
06
22
1C
0C
10
0B
F6
00
15
19
FC
06
EF
02
F7
00
F7
F8
F3
17
FE
01
03
FA
0C
0D
04
F6
F6
0B
03
07
07
FE
0E
01
17
2A
24
0D
FC
10
F9
00
FB
F0
E1
03
05
0E
0C
08
05
00
0F
0B
12
02
F5
01
F9
FF
0C
0D
21
1F
22
1A
0D
EC
FB
F8
02
05
00
0E
F5
05
06
06
17
15
03
07
0A
0A
09
04
0E
07
03
FC
12
0E
14
0B
04
FA
00
F9
FB
FF
F2
14
17
FA
FA
FE
11
FF
01
F4
EE
F4
F7
E8
E5
F5
03
F5
F8
02
11
02
02
FC
F9
F7
FF
06
EF
F7
06
FE
03
05
0C
0D
00
F1
F3
E4
F0
E5
ED
F1
E7
E6
EB
FC
ED
F5
00
0F
F0
F6
F4
08
EE
F2
00
FF
FB
05
02
01
04
EA
EB
E8
E5
DF
F4
E7
E9
EC
F4
E2
F1
00
FA
0A
F3
F4
F6
05
E5
EC
FA
F9
FA
02
02
FE
FD
E3
E7
D9
E3
EE
EB
E6
E4
F9
F9
ED
EC
04
08
0B
F8
FB
02
FC
DE
FE
09
F8
F7
0E
02
FD
F2
EF
E3
EB
E6
F7
E9
F5
FB
EF
F3
EF
F9
0C
11
07
F6
FF
F3
E9
E3
EE
0E
07
02
0E
0B
0B
FE
F4
EB
F1
FD
0F
01
03
FE
EA
F1
F8
FD
F5
05
FC
E8
FE
F5
F8
F1
F4
00
F2
05
03
0B
14
09
0E
FA
EF
FE
1B
09
0B
05
05
03
03
FA
FE
FD
E4
F3
01
F9
F2
FA
F0
10
0B
0F
04
07
04
1C
09
06
FD
02
15
0E
0A
FD
FF
09
01
FB
F3
F7
F0
0B
10
F0
F6
FA
02
12
0F
07
10
11
0E
10
07
00
FC
14
1A
10
10
0A
09
09
00
EE
F7
08
05
0B
0E
F8
0A
10
07
11
07
14
0D
00
0B
11
0A
01
15
09
16
0E
0C
08
F5
0A
0A
00
04
14
13
10
04
ED
01
10
FB
0B
13
07
0D
03
01
0A
F2
07
12
1D
1E
1E
02
11
15
15
05
FC
01
31
0E
F6
F9
F4
15
0C
15
05
15
12
0B
05
01
F8
E9
FC
18
26
20
10
0E
02
0F
0A
08
03
0D
32
0E
F5
EB
EE
15
12
13
1B
17
04
FF
FF
ED
DC
EA
12
1C
17
0C
12
10
0E
02
FB
F3
04
11
1F
0A
09
F6
E7
04
0B
08
01
13
04
0A
00
EC
E7
F1
04
0D
14
0A
FF
00
02
F0
FC
FC
0C
0C
18
24
06
09
04
0F
17
F3
FF
01
FC
FA
F9
FC
F6
F9
FB
02
0F
05
00
02
F3
EC
02
F7
FD
00
04
20
F9
FA
FE
09
08
F3
FE
FB
F8
0B
FC
F8
F3
FD
0B
01
07
FF
F9
0B
F7
04
09
14
11
07
FF
F6
FC
F4
F5
FD
0B
04
08
EF
F7
FB
F3
FB
01
FE
F9
F1
FB
FD
F8
FE
16
12
14
08
03
0B
08
08
F9
03
05
00
04
02
F8
F2
EF
F3
F5
E3
F9
FE
F5
F7
EF
03
F0
00
06
09
10
15
F9
FD
02
FF
F6
09
FA
FC
F0
FB
05
FC
EA
EA
F9
E7
F6
F7
FD
06
EE
FB
FD
F8
FF
00
0A
02
01
12
0C
01
04
08
02
EF
10
FA
FC
FB
E4
E7
E7
F3
F2
F0
F4
F4
FB
E7
F4
FE
DB
E5
FE
05
0B
0D
FC
0F
FF
01
FD
02
F6
FF
F6
F0
F3
F7
ED
DE
DA
E8
D3
CF
DB
CD
DD
E7
D2
D3
D8
DF
EF
F3
F8
03
FE
F9
FA
0A
02
05
03
EC
F6
F6
EB
F1
E5
EE
F1
D5
D5
E0
EB
E9
DA
F3
F3
EF
F9
FB
08
0A
00
05
03
F9
06
01
FD
05
FF
05
FA
08
F9
FF
06
F9
06
F9
FA
05
FC
06
FC
02
06
F9
04
09
FB
07
01
06
F8
FB
FD
0E
16
03
05
0D
14
11
27
25
19
2B
1C
03
03
08
0B
05
0F
08
FA
F6
FD
F7
FB
FD
09
09
0D
0B
1D
05
E6
F3
0D
06
15
20
2C
28
20
2B
1F
17
13
16
0A
F8
F9
FE
FA
06
01
10
07
18
00
04
01
1B
09
11
F3
04
0B
15
11
07
0A
0E
07
0D
0F
0D
FB
18
00
FC
00
05
03
03
11
10
FC
F1
F8
07
0D
19
0F
F8
F9
04
1F
14
0F
0D
12
FC
0A
06
00
10
09
0A
08
07
07
10
F7
F8
FE
F3
F2
F3
F1
05
03
05
01
0A
05
0F
10
16
13
15
07
0C
14
09
1F
16
F9
06
0F
07
F0
F2
F6
FD
FB
FB
01
16
0F
14
0A
0D
0A
02
08
10
0E
08
04
14
10
18
2E
23
0E
05
15
EB
EF
01
FC
FB
FA
FE
0D
1D
13
0E
02
1D
07
FD
F7
0C
0B
01
FF
14
08
18
3D
1E
08
07
FA
F5
E7
EE
FF
F4
05
0A
03
10
0F
14
0B
00
F8
FC
F0
E9
F6
EE
F6
F3
E8
F4
FF
0D
10
02
F4
F6
F2
03
01
06
12
18
06
09
00
01
F9
F3
E7
F1
DD
DA
DB
C7
D4
DC
E7
E4
F2
0E
14
FD
FD
E5
01
06
01
08
0B
05
07
04
0C
FE
03
E4
DA
E5
ED
E5
DB
DB
D5
C5
C3
CA
F6
10
15
EE
F6
DB
0A
1C
00
FF
EC
F4
00
FD
F9
06
18
06
F6
00
0B
00
F1
F1
E2
B3
B3
E2
F1
10
09
00
F1
F0
02
F5
FF
FA
FB
FF
F7
FB
0C
13
0E
14
08
0F
10
09
F3
F8
EF
CA
D3
DA
EA
05
08
FB
F7
F6
12
E6
F8
06
05
03
F5
F9
F9
06
18
06
FE
10
13
0B
05
05
FA
F3
EB
EE
E3
0C
F6
10
F8
F3
FD
DA
D5
FB
06
03
FF
F0
F1
10
07
0E
03
01
00
FB
FC
02
05
EB
F3
0A
FF
E6
FE
0D
05
FF
EC
E0
DE
03
F5
FE
F3
F5
00
FF
02
0E
F7
02
06
0A
06
04
0E
0A
FF
10
04
DF
EB
F2
08
09
F5
EF
EA
F4
F2
F2
03
F0
FB
FB
06
07
F2
FE
02
0C
12
0F
16
22
19
1A
F3
DE
F4
FE
06
00
0B
F3
F3
FC
FE
00
F6
E4
F9
F8
09
06
FA
EC
FF
10
12
18
1C
14
09
F9
D0
EC
04
0C
06
06
21
FE
0D
0E
05
FC
E4
EB
D8
DF
F3
E6
F0
04
08
0E
21
26
1B
0B
0D
04
F5
E3
F1
05
0B
07
21
0C
0A
02
F1
F7
FD
E5
CB
E3
EE
E8
ED
0B
07
1B
1C
14
04
08
0B
0D
0B
E6
F9
02
07
F4
05
0D
FC
06
F6
05
0D
FC
F1
F1
F6
FA
02
FA
13
14
15
1C
0F
25
14
FC
F9
F7
0B
F9
01
FC
FE
19
0C
06
07
FD
08
FB
FA
FF
04
F9
06
FE
05
13
10
20
1B
07
FB
F2
F6
EA
05
F7
F8
F8
04
0B
06
02
08
0B
0A
0B
03
F5
F6
F8
FF
03
11
10
02
12
0E
0F
19
F0
EB
F4
03
00
06
0F
1F
24
15
15
07
0A
06
04
FE
04
08
0A
0A
0E
00
00
0A
12
FC
0D
0B
F6
F7
F7
F9
F8
F9
F8
26
15
15
1D
17
1A
1B
11
18
0A
08
07
00
04
FD
FD
FC
0C
F5
0D
11
FD
EE
FA
F6
FE
F9
13
05
F1
0E
1F
14
1A
13
16
0E
2C
27
09
0D
0A
03
01
11
08
0B
0E
11
17
01
F3
FE
FB
06
09
06
10
0B
06
F3
F8
FB
07
01
05
09
03
08
11
0D
02
F4
03
09
0D
10
07
01
FF
0A
00
F6
FF
F8
FB
00
07
02
00
EA
E8
E8
E0
F9
E3
F5
07
F5
FC
FA
F0
E1
F3
FE
05
02
F8
F8
F6
F9
02
09
FE
04
01
02
06
02
03
F9
06
09
09
03
F6
F6
07
F8
07
06
F8
FE
05
FA
FD
FA
FD
F8
01
06
FD
0A
03
0B
03
09
F5
F7
19
17
FD
01
0C
04
1C
1E
18
0B
0F
F6
F9
F8
FF
FE
FD
FC
05
FE
19
08
03
15
0B
03
FE
F9
FB
04
F1
E8
04
0F
14
12
00
07
08
0E
F8
00
F7
F9
F9
04
F6
0D
1A
16
10
FF
F2
FB
FC
03
10
0B
01
0B
FE
0F
1C
07
1C
18
13
19
00
0D
07
FE
FD
FF
F3
01
FD
0C
01
FE
E6
FA
E9
F9
03
0A
FF
00
FE
09
05
0B
06
13
0F
26
11
1B
29
0E
00
01
FF
0D
EE
FD
06
FF
DF
DF
E3
F7
02
FD
00
09
09
1C
10
1B
16
09
FC
03
15
12
1A
15
FD
FD
06
E8
E6
E0
D9
E1
E6
EB
F2
F4
F4
00
FD
07
0C
13
07
17
11
FD
01
0F
1C
21
FF
0C
F8
E5
FA
F5
F2
E7
D7
DD
EA
EE
EE
F0
F8
FF
0E
12
16
06
0D
F9
FF
F3
FC
07
0B
10
01
00
FF
F1
FB
0A
0C
FD
ED
E1
F0
F2
F4
07
FE
F8
04
0A
19
05
FC
FA
FF
FC
F9
03
21
10
09
17
FD
F1
08
0B
FD
F4
E3
DF
EE
04
0D
FD
F7
00
FF
F3
FE
FF
F6
FB
00
F6
FA
0D
24
25
0A
EA
F5
F4
05
F0
DE
EC
EE
EF
F1
06
0A
00
06
FF
FB
02
03
FA
FC
FE
03
FF
0B
28
1E
12
13
F3
FF
FF
EE
D4
E0
E9
F2
F9
04
09
F5
F6
04
0E
15
0A
0A
09
07
04
FF
00
EF
04
20
26
2F
03
07
F3
05
F4
EA
EB
FF
FF
00
10
02
F9
FB
1F
27
1E
02
0C
0D
0D
FA
E7
EB
FB
EA
F7
12
F1
04
FE
E8
F1
EC
E4
EA
F7
FB
03
F9
F4
12
1A
19
18
07
F6
F9
05
F5
D1
CB
D4
DF
F5
03
00
11
FF
EB
F8
E0
DC
E1
E8
FF
FD
EF
01
0C
1E
12
09
F6
FD
F2
EF
EE
E8
D7
DB
D1
F1
EF
FA
04
13
FE
DE
E5
EB
FE
F3
FC
ED
F2
FA
0B
0E
04
F1
04
F3
F7
FC
FD
DF
D7
E2
EB
E2
E7
FB
FD
0C
FC
EC
F8
F7
03
F7
F3
DF
FA
00
FD
01
EF
F7
FD
04
0D
FA
F7
D4
D0
D2
F3
F0
E4
F4
05
19
FE
ED
0A
FD
FF
F8
F3
EA
F6
F9
00
F3
F7
FF
10
13
09
0A
F9
CD
C2
D2
EC
E7
F9
0C
FA
03
03
01
04
11
17
08
FD
F5
FB
FA
F1
FA
EE
08
28
2F
19
08
E4
B0
BF
DE
E6
F1
FF
FA
09
F6
00
F1
0C
18
0D
FB
10
00
F5
FC
FA
F3
FF
0A
19
33
31
00
CD
A9
C7
ED
FC
03
EF
EE
FE
0F
F4
F2
FE
12
10
F6
04
05
0E
05
F8
FA
FF
17
11
2F
16
E8
B2
B9
DE
EE
06
FC
FD
FF
F8
FD
ED
FA
02
FC
00
01
FE
FC
0C
05
00
0E
06
0C
13
1F
F9
CC
B6
BA
CE
F7
00
0A
F7
FE
F9
F5
FA
F9
F7
E5
EB
FD
FC
FA
0B
15
0D
1C
1C
0C
03
F6
D6
C5
AF
C6
CA
E1
07
09
FA
F8
04
01
12
0C
ED
F0
F4
F1
FE
00
FD
0E
12
0B
0D
0C
FE
E2
CE
CA
CC
D4
E9
E5
F8
F9
F7
08
F6
F9
07
13
07
F4
F8
00
00
02
02
08
1D
17
10
03
FE
EE
E6
D2
DA
DE
E7
EE
FD
F1
F3
FE
03
F8
14
F7
ED
FC
F7
04
FA
07
0B
01
0E
03
FD
03
0E
0F
FA
FC
FE
ED
02
F5
F1
02
F7
FD
F8
08
FE
0F
1B
1A
01
FB
F3
FA
17
21
21
0F
10
0A
FE
1D
13
0C
16
0B
0E
0E
06
03
FB
FB
08
07
F8
F6
FC
FE
EB
F3
F2
EF
01
16
12
F9
10
13
0A
01
07
FF
FA
F9
FF
FA
F8
06
F9
03
F7
FE
F6
F9
FA
06
03
FF
FB
05
06
08
0C
0E
FF
F8
F8
07
FE
02
FC
FF
FC
FE
00
01
01
FC
FC
F9
07
05
09
FF
11
0A
07
07
13
02
02
F9
09
00
E3
F9
19
1C
27
21
10
0A
F7
F7
0A
09
FE
FC
01
F5
FE
0E
14
13
08
0A
09
0E
09
19
1D
17
1B
1A
0E
12
11
08
1C
02
EF
F8
F9
06
03
09
15
02
10
10
16
17
16
06
11
03
FB
F5
F9
06
04
06
09
0E
06
13
1A
2A
11
FD
E9
F9
00
04
14
18
11
18
06
05
0D
06
0E
FB
07
FF
05
FD
07
F6
F9
08
0A
17
10
13
0D
06
15
01
FE
F9
02
F6
F6
1F
0C
0B
15
04
05
01
0C
0A
06
0E
F5
02
F8
F0
06
05
07
06
22
1B
08
FC
FF
F5
F4
02
05
08
01
08
0D
06
04
0D
11
0F
06
0B
FC
09
F1
00
00
F0
FB
01
17
29
09
04
FC
EA
0A
F9
F7
EC
F1
0A
08
09
FF
F9
0F
FF
04
FF
FE
04
FA
06
09
FD
FE
04
00
03
FE
04
F4
0D
F8
FD
FD
08
01
0B
02
10
FE
05
FA
0E
01
FB
F4
F0
01
0A
04
03
F9
FD
09
05
1E
0B
01
14
EC
FC
13
FA
10
0B
05
00
04
01
0B
FE
03
F6
EB
F3
01
FB
02
0A
08
05
0B
19
23
FD
0B
11
FF
F2
14
F9
FE
F9
09
0F
0C
0F
08
F6
09
09
F9
ED
F5
09
04
04
06
10
0D
03
08
0C
F8
01
12
12
0A
17
07
01
11
16
12
01
07
07
17
0B
FA
F5
F5
09
05
09
16
1F
19
16
1B
17
FF
0D
09
14
0D
12
01
01
09
FF
04
FB
F0
FD
1E
24
19
08
FD
F2
08
1C
12
11
05
F9
08
0F
07
01
1B
13
FF
13
FC
01
0B
FC
F6
F6
FA
0D
1F
20
1C
02
FD
FB
0B
04
02
0B
00
F4
00
FD
FB
11
16
1D
F9
F9
FE
F3
04
02
04
13
0B
15
1E
1C
16
0D
FC
0B
06
01
05
F4
F0
F8
F2
FE
F6
00
08
06
FA
E7
0B
04
0E
04
00
11
FE
14
12
0D
07
00
10
03
F5
FF
FB
01
DA
FF
F4
F1
08
FD
15
FC
F2
F4
06
05
00
03
F7
FA
FB
09
03
02
04
05
01
F9
ED
FB
F2
EF
FB
F1
F2
DB
F8
06
02
E8
F4
FA
01
F7
05
F8
FA
F3
EB
03
0A
0B
F9
03
0A
FD
02
FA
F2
FB
08
F1
FB
DE
1D
FC
0F
E9
E7
F9
06
FD
F7
00
EF
ED
FF
FA
01
05
F8
03
09
F6
0F
FB
EE
EB
F6
F2
15
E5
09
F7
F3
ED
E9
FC
F7
FB
F7
FE
04
EF
E9
F7
03
FF
00
FD
06
0D
F9
F5
ED
F4
06
F5
F7
EF
FA
E8
DF
DA
E0
FD
03
FD
F6
FA
F6
F6
EF
FF
0A
00
07
F2
FC
08
FA
02
ED
00
05
F2
01
00
F9
03
F7
DF
F1
FE
12
05
06
06
02
FD
FD
00
0A
08
FD
04
0C
0E
0F
04
F0
ED
FD
EA
E7
FD
FC
F9
ED
EF
07
FE
04
0A
FB
02
FB
FA
04
F8
02
01
FF
09
0B
FC
03
01
ED
00
F4
FA
EC
F4
F6
F7
E3
E9
F5
04
FF
FC
F5
FF
E8
FD
FB
05
F4
FF
16
FC
0A
09
01
0A
F3
F8
F3
F2
E5
F9
07
00
FF
ED
F3
F5
02
FA
01
05
00
0F
09
F8
F2
FB
06
E8
F5
0D
16
F8
F3
EE
E6
EE
F9
06
FA
03
FD
0B
03
F2
F6
FC
06
1F
1A
18
19
14
1B
18
03
FE
05
FF
07
15
FB
E8
F2
FC
02
07
02
F7
F7
04
F4
F5
FD
1B
2C
21
23
09
0F
15
26
0E
10
10
11
FE
15
1F
14
0C
05
0D
06
FE
08
01
02
F9
0E
1C
26
06
09
17
17
03
0C
13
23
03
0D
18
1C
1C
1C
1A
1E
0D
FF
00
FD
FA
08
02
08
09
03
02
07
F7
05
00
F7
06
07
F6
05
09
00
FA
FA
FE
08
04
04
0A
09
07
F6
06
01
FE
FA
09
FD
03
F7
FD
05
04
EA
EC
ED
F2
07
F7
F7
F6
F8
FF
EC
EC
F0
FF
FD
01
FF
00
FD
09
FD
EA
F4
01
F5
FB
06
18
FC
F8
F7
F5
04
02
E9
E6
E0
EC
F6
E6
EB
F6
0B
06
07
FF
F8
02
0D
F6
F4
EC
F8
EF
EC
FB
F6
F0
07
F3
E5
E6
DB
E7
DB
F1
F2
05
02
E6
DF
FE
00
09
FD
FA
16
E9
F7
E7
EE
E7
F1
0A
F9
02
0E
08
07
F5
ED
01
EC
E5
EB
FC
F2
11
01
06
E9
E4
FD
09
01
04
FA
00
F7
EA
FF
F3
FD
07
0F
0B
02
04
EE
EE
E5
ED
F6
F6
05
07
03
F4
F4
FD
FE
00
07
07
F4
F4
EB
FB
F2
EC
06
12
04
F9
FE
E7
E0
E5
F3
F2
FE
FB
0B
09
11
04
18
F8
0A
FC
01
F7
EF
FC
E6
E7
FD
08
1C
06
FD
04
F1
E7
EB
F6
F6
F7
FC
06
1B
11
FA
01
13
F3
FB
0C
03
FA
EC
F9
F6
F4
FC
05
10
11
0D
00
FC
F0
F7
03
12
03
0E
09
0D
1B
21
23
02
FF
0A
12
FC
00
F5
00
F9
F4
EE
F5
02
0C
0E
0A
08
0B
0F
15
28
16
0C
17
1A
19
16
1C
10
08
0B
07
08
F5
E6
F4
00
FF
FB
F3
FE
07
0F
1B
0E
10
FA
06
18
1E
0D
11
09
03
06
13
26
FB
FA
F4
FE
EB
F9
F4
F9
05
F6
F6
FD
F7
0E
FD
04
03
FC
EC
FA
F3
FC
FB
04
F3
08
07
06
F4
FC
00
FE
E9
E9
DD
E4
0C
04
FD
01
FF
0B
05
F5
F6
F1
E1
EB
DA
E9
E6
F8
EC
E8
0A
1E
10
00
01
12
F0
DD
FB
E3
08
FC
03
01
FB
05
F2
07
F8
07
F8
F9
E9
E9
F3
FF
F3
F3
FB
29
10
FA
F7
06
E6
ED
EF
E6
08
FD
FB
F7
F3
F4
02
0D
07
0B
03
ED
F5
EF
F8
11
01
FC
06
1E
0A
F8
02
FB
F1
08
EE
EF
F3
F6
03
FA
FF
0A
12
12
F4
F6
FD
F9
F7
FD
02
07
09
FC
07
21
20
FB
FE
04
F4
FF
FC
01
F8
ED
F4
00
09
16
1A
17
01
F8
F0
03
ED
FA
13
08
0F
F2
0F
2C
15
FF
08
06
EB
0F
FD
06
EF
E8
FC
11
1A
1A
0C
0C
05
F0
EF
03
F0
FC
0A
15
F7
FD
0D
17
15
EC
09
06
F1
FE
FB
03
0E
FE
FB
01
19
18
09
F6
F2
EB
E4
F3
01
03
FD
FE
10
16
10
23
22
FE
01
F5
11
FB
FA
FF
FE
FF
02
F7
07
0A
07
F1
EA
F1
F1
EF
ED
F7
FA
F2
0C
0F
28
30
0E
F9
FA
FC
FF
E7
EC
01
F7
06
00
11
12
15
08
EA
E9
F5
06
FA
FE
FB
E7
E5
FF
13
06
16
FA
03
F7
FC
E1
F4
02
F0
EF
FD
0F
06
11
1B
01
02
F2
03
0E
07
FC
FC
F0
F9
09
19
1E
0A
02
02
F8
FC
F2
F3
F3
F3
06
F4
08
08
05
18
02
F2
F5
F7
02
FC
03
FC
F6
FE
03
23
1E
20
F7
08
F6
F2
F4
F7
F1
06
F5
F1
07
04
07
1F
06
05
00
01
04
02
09
00
03
FE
12
0B
19
0C
05
0A
F8
FE
F2
E7
FA
F0
EB
EA
FA
09
12
0C
10
07
FC
F7
F0
F6
00
EB
05
02
09
15
14
0D
FA
05
FF
00
25
0D
FF
05
EA
E1
F2
03
04
FB
F0
F6
F0
D8
E7
DF
DA
E5
0B
0D
08
14
00
FA
04
FA
FB
F8
FB
E9
03
F5
FD
EC
E9
E1
F2
E4
E2
D2
DA
DF
E8
D1
D4
E2
DF
F6
08
04
0E
0A
09
FE
F7
FC
F8
06
18
F3
F6
EC
EA
F3
F6
F4
03
EC
EF
02
EC
F0
F9
F6
EC
FC
06
03
00
F9
F8
02
06
07
FE
FD
F8
F8
FC
0A
04
07
FA
03
09
00
FD
08
FD
FF
06
FA
FF
06
0A
05
0A
FE
F8
F6
00
F9
05
00
FE
08
06
00
12
11
11
1F
03
03
1D
0C
0C
11
10
1C
01
05
10
07
06
FE
02
00
FE
04
0B
12
06
14
16
16
33
2C
34
30
23
0D
17
02
F8
06
FA
02
0B
0C
17
15
07
02
05
07
00
0D
08
F6
09
0D
19
29
15
0F
24
2D
28
24
1C
18
03
03
F9
00
F7
FE
0A
14
F8
F4
03
00
FE
10
0C
12
10
0A
04
1D
12
05
04
0F
14
13
18
1B
01
FF
03
FC
E6
FB
DD
DA
E8
FB
09
F6
07
28
F5
03
F7
ED
FC
03
F6
FC
F6
FA
F8
0D
16
0C
0C
02
0C
F8
F6
EE
FE
EE
E5
F9
08
FA
08
F7
10
06
FF
F9
F8
EF
05
F7
F1
F3
08
13
0D
14
14
08
FC
FA
08
FB
F9
EF
EB
EB
05
08
18
F5
0A
1F
0A
F8
01
FF
FF
EF
FA
06
F5
13
0C
1E
18
12
0E
FC
09
04
EF
F2
ED
F6
10
1A
1E
FF
0B
0F
FB
ED
F3
FA
E5
F8
F1
F8
F0
08
13
15
1C
0E
17
0E
09
0D
F8
D9
CD
E6
F4
FB
0B
02
11
0F
08
FD
FF
F9
EF
FB
EE
EF
FC
FF
13
18
0A
0D
20
1C
03
14
FC
CF
CE
D7
0B
03
F6
11
15
01
00
FF
FB
00
FB
F2
F5
E3
F9
FA
FF
0A
0E
17
12
1B
07
0C
08
DD
CF
ED
00
F0
0F
00
10
FC
EE
EA
F3
F4
F7
03
FB
EA
F8
F9
03
FD
02
06
09
16
0F
17
09
E9
DA
E7
02
03
04
F5
F7
F6
E9
F8
01
F7
0B
05
FB
F3
F3
FC
00
02
FD
FC
06
0A
04
18
0D
01
DA
D7
07
13
FC
FC
F3
08
F4
0C
F6
09
05
04
04
02
FC
FF
F9
F9
F5
FF
02
FB
06
06
03
F9
D9
E7
0A
FF
04
0F
FD
EE
00
07
F6
04
0B
00
FE
F1
FC
07
0B
01
F9
FD
02
F8
0E
00
02
07
DF
FF
03
F7
0C
FA
F4
EE
14
02
07
FD
04
F9
EE
FD
F1
F5
05
09
F7
02
F7
0C
05
FE
FE
FE
E9
F5
02
F9
15
0D
F9
FF
0B
FA
0A
06
01
0A
F6
EF
F7
EF
FC
00
F6
07
06
FD
08
FF
FC
FD
F2
08
0C
F7
05
FF
F8
F1
FC
F5
FA
05
06
0A
F0
FE
FF
F5
EE
FE
F4
FC
11
F9
FA
FD
F7
F4
06
FA
00
12
19
F5
F6
EC
F4
FD
06
FE
04
01
FF
ED
FB
F0
F6
F2
03
05
F9
F0
01
01
F6
F9
1D
12
17
00
07
FD
EC
F2
FF
FB
03
FC
12
0C
08
F9
F9
06
F9
07
06
FA
07
FE
FA
09
FC
0E
0D
0A
0A
01
13
FF
FB
F8
EE
F9
13
FD
01
0B
0E
12
FF
12
0C
01
05
03
FB
01
01
F8
F9
0B
09
13
08
0B
FE
25
14
03
EE
04
0C
08
02
17
0F
19
10
11
01
0F
04
02
03
F7
FB
FC
03
05
03
1E
FD
F8
0D
11
04
F6
0D
02
08
11
0F
09
FF
0A
15
0E
19
0C
0B
F6
FB
04
03
F5
F9
00
F6
0A
FD
06
00
1B
F9
EB
F6
0D
0C
00
03
02
02
05
02
05
08
FC
0B
02
F2
E4
F3
08
09
07
F7
01
01
F9
01
FA
0F
20
13
FF
F9
03
FF
FF
F9
F6
FB
06
0D
01
14
F1
E5
E7
FD
FE
06
16
12
01
F8
0A
03
0D
FF
FD
06
10
1D
22
11
07
08
17
0B
05
F7
0C
F1
F2
FC
FB
FF
FD
F9
F3
FA
0D
05
06
FD
07
FA
FB
FA
0B
14
19
0B
1D
0C
02
06
0E
16
09
06
03
FF
0B
F4
EF
FC
FB
FE
FC
FA
FC
04
0A
05
08
06
19
0F
14
0A
15
09
04
11
20
1B
0D
09
FF
00
01
09
FF
FC
08
00
05
05
06
F9
FB
02
F9
F9
07
09
FC
FA
F6
F8
FB
07
FB
FF
FF
FF
FA
03
FD
F8
FC
0A
FD
09
FD
F6
F7
02
F8
F8
FB
FB
00
06
FF
F5
F4
05
FD
03
FD
01
21
09
F3
DE
EB
E6
FA
F9
04
FE
01
04
FC
01
09
00
FD
FE
FE
09
02
15
00
FA
0D
DE
E6
F4
EF
F9
03
EF
EF
00
F1
E7
01
03
02
F7
FE
FA
F8
FE
EE
ED
EF
EA
E7
EF
F9
FD
F2
08
02
08
00
FD
FF
E9
DE
FD
FF
0F
17
04
F2
05
FB
01
EC
E4
FF
DF
F0
EF
F7
FE
00
FE
F7
03
05
0B
06
14
0F
01
07
02
FE
F9
0F
10
0D
16
0A
F8
F1
02
F1
D8
F6
01
F6
02
0D
19
12
0F
0D
FF
FC
11
F8
00
0F
0A
EF
EE
07
23
12
06
08
F8
05
E4
F3
E9
FE
F8
08
05
06
13
17
01
01
F7
FD
FD
F5
F8
F1
FD
08
04
02
0D
00
00
0B
FE
0C
E7
F3
F8
03
F2
03
15
08
04
07
FC
F3
F3
F7
FF
FA
EE
00
03
12
16
0A
14
FF
0F
0E
01
08
05
F0
F7
01
07
01
15
0F
12
06
0A
FE
F9
00
FB
07
F3
06
07
06
20
10
08
0E
0B
01
06
06
03
EA
F4
FC
EB
FD
03
05
F4
FE
F3
F9
F2
F4
03
F9
06
FD
0E
07
16
25
16
14
F4
03
09
0F
F8
FE
FE
F7
FB
FB
0A
06
F4
00
07
0A
ED
F6
FC
FA
0A
08
0F
24
1E
25
FF
0D
09
FA
1A
E6
F8
FA
EF
FF
09
FC
07
03
FF
0A
05
04
F0
F7
F5
FE
FD
02
15
10
1A
1E
17
23
09
FF
0E
FD
0B
EE
EE
FC
01
FF
06
02
0E
0D
0A
F7
EB
EA
03
F3
08
15
1E
17
20
3C
17
05
F1
F1
0F
09
FE
EE
F6
F4
F7
F9
06
13
24
10
04
FC
FA
F9
F7
03
FC
09
0E
23
19
21
2F
12
0B
00
FA
FF
E6
D3
F1
01
01
02
05
1C
18
1B
00
02
FE
F2
06
0B
03
EF
03
0D
01
10
30
16
14
0C
F8
EA
F0
E7
F1
FA
F8
F8
02
0C
11
0B
09
FE
05
F3
FD
05
FA
F3
F2
F8
05
18
21
FF
09
0A
FC
EC
00
F2
EC
F4
FD
FF
0A
0C
06
FE
F5
08
0A
00
06
FF
FE
F3
FC
EF
00
05
1C
1E
12
F7
F3
F4
FB
09
F4
03
F8
08
19
14
09
0B
FD
FC
F6
FD
FD
F4
FD
FA
02
FE
0E
19
14
03
28
E4
EF
FA
F3
06
04
05
11
04
10
0C
FC
0D
FE
FB
EF
FA
E4
F6
F4
FD
F6
F7
0A
12
EE
11
09
FE
FD
12
E8
FE
F8
FB
06
0B
04
13
FE
02
F9
F6
F5
E6
EF
EC
F4
06
02
FE
09
FB
E7
15
F1
F7
0A
1A
F8
00
07
FD
19
1B
10
19
06
0B
0A
EB
FF
ED
E6
F0
EA
F8
01
FD
F7
E7
E2
FE
02
FF
FD
0D
00
0B
0E
0E
0E
05
16
06
11
11
0E
FC
F3
EA
F4
F6
FA
F9
F6
00
0A
EA
F8
1C
0A
FA
F6
00
09
0A
0F
10
10
14
12
0F
0F
06
0F
FE
FF
F0
EF
EC
F5
F7
EB
F3
EC
F4
F6
F8
04
FC
FA
E8
FA
0D
FD
FA
06
0F
10
0E
15
0E
16
FF
0C
0C
F1
FC
FA
F7
F6
FB
FD
E5
01
F8
FE
F7
06
FD
E9
D6
EB
EA
EB
03
F7
04
16
1C
0B
0C
0F
07
F4
FD
08
F7
ED
EE
FA
05
FC
FF
F8
F6
02
F4
00
E8
C9
E1
E6
E5
F0
05
02
F5
F0
03
0C
0A
05
FC
F3
DE
E2
F8
F2
08
F3
05
00
00
00
F9
FB
F5
DF
E1
E3
EA
EE
E1
F4
FE
FC
E7
FD
F0
EE
F3
F3
FD
FC
FC
FF
04
FB
06
04
08
F7
F8
04
0A
0F
F4
EA
EC
FC
E9
F2
ED
0B
F8
FC
07
08
FA
FE
FA
00
08
03
02
01
F6
FF
05
FF
03
F7
02
FC
FE
FE
05
05
04
09
F7
04
04
F6
09
F6
05
F7
02
01
FB
00
FA
02
F8
FC
FC
FC
F7
FC
F7
FF
F0
EA
EC
E7
EB
F0
E7
EC
04
E5
DE
E9
FA
EE
F9
F5
F9
F6
01
01
02
02
03
F6
08
07
05
E8
F4
E5
F4
FA
F5
E2
CB
D9
E9
F4
FE
08
00
14
0C
0F
07
EE
F5
08
FE
FB
F6
FC
01
03
06
FA
EC
FB
FF
10
0B
F9
EE
F6
EB
F3
FA
FB
FF
13
11
06
09
FB
18
FF
09
03
03
00
FB
F3
01
F8
F6
1A
00
0A
FD
03
02
ED
FF
00
FA
FE
FF
F7
FC
04
1C
21
1F
17
10
04
FA
00
DE
F4
F0
13
FD
FD
0C
0E
11
07
00
06
FF
F3
F9
FB
07
08
FE
12
14
16
0C
05
00
0B
F7
02
0F
F0
00
10
0C
FC
15
0A
06
FC
F9
04
F4
F0
F1
F4
FD
FF
FE
FE
01
07
F5
18
0F
04
05
EB
11
F2
F0
11
10
08
FD
03
09
18
0B
00
F5
02
F8
FF
04
0A
0B
FF
06
F9
FE
29
10
FD
05
FB
0F
F8
FC
06
0A
05
12
02
0F
19
02
F5
01
FD
00
08
02
FB
10
FF
F7
FF
12
2C
16
FD
F9
F3
FD
06
0A
0B
04
06
FF
02
0F
0C
01
F8
E3
FA
FC
05
07
07
01
08
FD
FE
10
33
19
14
FA
07
10
0B
00
0A
0A
11
05
10
10
1A
00
EF
E3
D4
EE
FE
08
06
FD
02
04
E8
04
2B
20
15
08
0A
F6
E4
F1
0B
19
18
0C
FA
0B
08
00
ED
DD
D8
E2
F7
0A
10
0C
05
02
F3
F1
F6
FA
F3
0B
FC
F1
F0
F2
03
0F
0E
0C
01
0A
0A
06
F5
DD
D9
E1
EE
0F
16
0E
07
F9
F9
DC
E7
FF
EB
09
08
FD
F1
0A
18
02
14
FF
FC
F8
09
FF
F4
EE
D0
D7
E9
FB
0F
21
14
05
FE
F8
E6
FA
F1
05
00
F8
FB
2C
22
0E
1B
06
F6
07
05
FE
00
F4
DA
DA
F7
08
15
20
15
0F
04
FB
E6
1D
FF
0F
F4
F9
FA
22
1B
04
00
00
FF
0A
08
13
11
DE
C9
E4
F8
23
1A
11
13
FC
02
F3
EC
11
05
FD
F8
F3
02
19
0C
02
F3
07
07
04
07
12
F6
D7
CE
E6
1B
27
13
11
FF
00
E9
F4
FE
0D
02
FB
F5
FD
0B
03
03
07
F8
F0
01
03
0B
F8
EB
D3
E3
0D
28
2B
13
04
04
FE
F5
F1
07
0F
05
07
FC
0C
07
0D
FE
FE
ED
F6
F1
F4
F3
D8
D0
D6
09
2F
29
1E
11
01
F9
E9
E7
FB
F4
0E
03
F8
F7
FF
F9
14
08
FB
F8
FC
ED
F5
EC
DF
D2
EB
11
24
1B
11
00
06
FB
F7
F6
F7
08
FF
04
09
F5
0D
FF
14
0F
05
FB
06
01
E9
F1
F5
EC
EE
03
19
13
FC
0D
04
F6
01
FF
09
13
16
00
FA
F8
07
0C
00
04
FC
F9
F3
F6
F8
FD
00
FC
05
0D
0B
0D
0A
02
0C
02
FF
07
25
22
0B
07
F8
F9
09
0A
F9
FC
06
EF
FD
05
FC
07
0F
0D
11
0B
0B
07
07
13
0D
0E
12
05
32
25
1E
05
04
03
EA
FC
07
09
10
06
02
FD
05
0A
0B
09
15
13
02
FB
F8
07
17
15
0B
08
26
16
0D
F6
F6
F6
03
FD
03
16
01
15
14
0D
06
09
11
14
11
16
06
19
1C
08
09
16
0F
FD
1B
0C
FA
FE
FC
FC
F9
FE
FD
F1
FB
EF
01
F9
E5
FE
F5
00
F3
05
FA
0B
0F
07
FA
19
13
13
0B
0F
09
F8
06
04
06
06
F8
08
0A
13
10
1B
04
FC
0F
EF
F0
17
19
FD
ED
FA
F6
F4
FD
FD
F3
08
08
01
09
F7
FD
FD
05
0B
FD
FD
F8
00
05
04
FD
01
FA
F4
FC
F0
02
08
0B
EA
ED
F4
F6
FA
01
F7
07
07
FF
F7
02
09
F9
FB
04
FB
FD
08
F6
03
05
FF
05
01
FC
F8
F7
F7
FE
09
FB
0A
09
03
F6
07
09
F8
FD
FE
EF
F6
ED
ED
E6
0C
FC
F7
0B
00
01
03
E6
E4
E6
F5
F0
F4
00
06
07
FF
06
08
FD
08
07
F1
F1
F4
E6
D3
EA
D1
E7
F7
E7
E1
EE
DD
D9
DE
E9
E2
E1
E5
EB
EE
05
FC
04
06
F9
F4
E7
F2
E3
E5
E2
E8
EC
DF
EF
F5
00
F6
F4
FE
E2
E6
FA
F3
F6
F6
EB
0B
07
F8
FE
04
01
F2
FE
F5
00
04
FA
F9
DC
FC
03
0D
FD
00
07
F6
FF
F1
F1
FB
04
06
13
07
06
F3
02
FC
EE
F2
F8
08
05
02
F5
FD
0C
0E
0B
16
09
0A
FA
F9
FD
E6
F2
F7
FA
EE
EF
FB
F6
F4
FF
F5
03
FC
02
F8
F5
F4
FA
EC
02
04
15
04
03
FE
02
F4
FE
FE
ED
FC
0C
F6
E3
E0
EB
F2
01
E9
07
0B
FB
F3
FD
F9
F5
02
FF
FF
03
FC
FB
F7
FC
05
00
05
01
08
03
1B
11
02
06
02
13
E0
14
21
FC
FC
11
02
F6
02
02
F6
FD
F2
02
07
09
16
0E
05
F2
07
00
0B
1C
1B
08
FC
0A
01
16
10
E9
05
01
02
F8
0A
0C
F5
F1
02
FE
FF
04
0C
0B
05
12
FA
F7
04
23
F6
F2
ED
F9
F7
18
10
0A
10
05
15
00
05
FD
ED
FB
F0
FC
EE
FB
1E
23
11
05
F4
0B
FD
15
FD
E8
0A
02
06
06
15
FB
FF
14
23
11
02
0A
F5
F1
FB
E6
D8
F3
17
1A
0E
02
F8
04
01
F7
E9
03
06
02
00
00
0C
01
0E
14
07
10
07
06
05
FA
F2
D0
D5
EA
0A
0C
1C
09
04
00
03
06
E6
F6
F9
F8
FF
FC
05
03
FD
15
16
15
0C
1A
10
10
E2
D2
D0
F2
13
1F
14
08
03
10
0E
00
05
FF
EF
FD
02
FB
FA
03
15
00
06
13
0D
1A
1C
11
EC
DB
CB
FB
17
1E
18
0A
06
07
00
06
0F
01
F9
FF
00
07
09
0D
FD
F8
0D
08
09
17
14
04
E0
D1
D4
00
22
1A
14
FD
FD
00
F5
F4
F4
F9
F3
04
F9
F1
FF
0D
09
03
10
0C
08
01
03
F7
E1
E1
EA
05
0A
0A
0D
08
07
01
EE
E9
F1
FD
14
08
FA
07
FD
02
09
03
02
0E
0D
00
F8
F4
F7
F8
07
0B
16
0A
FA
02
FD
00
06
04
F7
05
08
ED
FA
09
E9
07
01
04
02
11
0A
08
FA
01
EE
F6
F1
FF
FD
05
07
02
0B
F5
04
06
CD
EC
E5
FD
F8
FC
F2
FA
FD
0D
0F
07
06
01
F5
03
F5
F0
EA
F4
F6
07
12
01
00
F7
E9
05
D7
EF
F2
FD
15
02
ED
FB
05
02
F6
06
F9
F8
FE
FB
FA
E8
EA
FF
F7
03
05
FD
FB
00
F9
FF
EC
F8
08
06
01
F9
FE
F9
0C
08
F5
05
0B
0A
06
F7
DE
E7
E1
F8
F3
F0
00
F2
FA
FD
FE
EE
F1
16
0A
F8
FB
FC
F4
F9
FA
02
FD
06
0F
03
0B
FF
F8
EC
EB
F7
F3
F9
00
F1
03
0D
09
02
04
0A
00
FA
FE
E6
E2
E2
F6
02
FA
09
0F
08
0E
03
FA
04
03
06
F2
F4
F4
FE
0A
FD
F3
02
02
F5
FF
04
F9
08
EF
F8
FE
F4
F3
FC
07
04
0E
14
12
F8
0C
FD
EC
F3
04
F2
F6
F4
ED
E3
0C
00
F8
01
FD
09
08
08
F3
F9
EB
F4
FC
F4
F5
E3
F5
02
FB
F4
EB
EE
DC
E3
EF
F5
EE
E3
08
FA
FB
F8
01
0A
01
0D
05
F7
FF
EC
FC
F1
E6
FA
F5
EE
DE
ED
E4
E7
D5
EB
EA
F3
02
03
03
00
FF
00
F6
07
04
F5
FE
E0
EF
F1
FD
F0
F3
FE
F3
FE
FB
F8
FA
0B
F5
FE
04
06
F1
00
FB
04
0A
01
04
F8
04
09
FB
F7
02
00
FC
01
04
FE
FE
09
08
FC
02
07
05
00
F9
F9
FB
F7
07
09
FC
04
06
FE
FD
00
05
0A
F5
FC
F6
0A
F6
FB
FB
FA
FC
F7
FA
F8
FA
F8
F8
07
FA
FA
01
02
FF
F9
02
FA
FD
0A
FB
F4
EF
F0
FA
EC
FD
FA
F0
E9
E7
F6
FC
08
F4
F0
08
FD
F7
06
FE
00
F9
FA
FE
00
F6
EF
F7
F8
EF
E4
E9
01
E7
DD
E6
E7
D4
D6
DC
E4
01
EC
FB
F8
02
FD
F9
09
04
F9
08
FB
00
E1
DC
C9
E3
DD
E7
EF
CA
E6
E4
E3
E7
E6
EF
E6
EA
EF
F1
FA
04
07
0B
05
FE
F6
F8
FF
07
F4
01
EA
F2
FA
F0
E1
EE
F6
F7
F8
F2
05
FF
00
0E
06
01
0C
11
14
0A
02
03
09
F7
15
1E
1A
13
FA
FA
FD
FE
F4
F4
0C
01
EF
F4
E2
F8
01
09
19
0F
F9
19
0D
0A
05
13
FA
0A
2C
33
21
08
05
12
07
0F
05
FF
01
F4
EB
F8
F4
FD
0A
04
09
03
04
0A
F1
F2
FD
08
F4
1B
10
18
0D
0C
FB
11
01
06
09
F8
06
03
EF
F4
F2
FF
06
F9
09
01
0B
09
0C
06
08
FB
15
16
04
08
1A
01
05
08
06
03
09
09
01
0A
08
F0
05
04
14
04
09
17
07
00
06
1E
05
EA
0B
17
00
07
0C
1E
0E
FF
08
09
0D
17
23
14
F6
EA
F5
04
0D
09
0C
10
0B
06
F9
04
02
EB
F8
16
14
11
24
1C
1B
15
FD
13
18
31
27
FF
D8
EC
02
10
0C
14
0D
0D
05
F5
E4
F3
FD
F2
08
1B
05
12
07
1E
0D
20
1C
1E
27
28
1D
D7
CE
DF
0F
1A
0D
08
FD
FD
01
E5
F7
FB
F8
09
0A
FF
15
0E
07
16
15
15
17
1C
1A
12
EE
BF
CD
E3
04
0E
02
F2
04
05
EF
E7
F0
F7
0C
03
09
03
22
18
F9
0E
FD
FB
08
12
15
ED
CD
B3
E0
F7
F1
0B
03
00
F1
F8
F5
01
F4
FE
FB
0A
0A
08
1A
14
F7
F3
FC
04
05
F9
F6
D7
BC
BE
EB
FA
00
FF
FE
F8
FD
EA
F8
05
EC
F2
F8
0A
00
03
03
17
F5
EE
F5
07
F8
E4
DC
B6
AC
D2
F5
FD
10
03
F9
02
01
10
0C
03
FB
F2
0F
0A
0A
05
0D
02
00
F4
E5
F2
E4
C4
C9
C1
C9
E4
0E
04
11
04
13
0C
13
0C
FC
F3
04
05
01
0A
13
FE
0A
F1
FD
EC
D9
D7
D0
B7
C3
C9
EE
FE
10
11
00
04
08
00
F7
FB
FE
E1
FA
09
13
FE
F8
19
19
F8
02
E7
CD
BD
C8
C2
D1
E9
F6
0E
14
06
00
09
03
14
FE
F6
E3
F4
05
EB
FF
08
04
18
05
E6
DD
CD
D4
CC
D9
E0
FA
02
14
08
10
0F
F3
FC
08
03
02
FF
F8
FB
05
ED
FB
06
F9
04
01
E8
D2
C8
CD
CB
E8
FB
0F
1A
0A
0E
13
0C
08
04
11
0C
F6
02
F8
05
0E
07
F4
04
FB
07
01
E9
E2
E0
E0
FA
F7
0B
FF
00
07
06
11
11
11
15
14
0D
EB
F3
F5
FA
02
09
F3
08
06
03
F3
FB
08
FE
0E
12
FA
0F
F6
FB
02
FA
06
0E
0C
08
1B
1B
F4
03
FA
FD
19
0E
02
09
02
0A
00
07
04
03
11
02
04
05
FD
FF
03
0B
04
0C
0C
14
14
1B
0C
17
0C
FD
14
12
FE
06
03
08
F2
01
FB
DF
FD
0B
0D
00
FB
04
07
00
0B
14
1D
18
11
10
F1
19
13
FB
0A
F7
FE
09
FE
01
08
09
E0
E4
E5
F9
07
FB
F2
EE
FD
01
FE
09
06
03
12
0B
02
F9
0F
05
ED
13
01
01
F9
06
09
03
0E
23
2E
13
0B
1B
0A
F5
FD
19
FE
00
FD
0C
06
FE
11
16
15
18
FD
02
02
00
F7
FD
02
F6
03
00
F9
05
05
05
FF
08
01
FC
07
08
09
FF
05
08
FC
FE
00
FD
FB
00
02
0A
07
F7
F9
F9
02
00
00
FD
F1
F2
F5
FB
DE
E8
FD
01
14
07
F4
EC
F3
FB
F6
F7
F9
F6
06
FA
09
06
F9
F6
FD
F3
F4
ED
07
0D
0A
FD
0B
05
0A
0A
02
FC
0E
02
11
FC
00
05
06
09
06
F8
02
FB
10
0D
FE
F2
FD
03
FF
10
17
F7
08
01
FB
04
FF
FD
10
FE
FC
FE
00
EB
F8
F3
04
02
08
FF
11
F2
EC
FE
05
0C
01
08
0B
13
11
0F
10
0D
13
12
07
0F
F9
EE
F3
F3
F6
ED
F1
01
09
F8
01
09
11
F6
EE
F7
EA
01
FF
10
09
05
04
00
10
0B
FC
FA
04
02
F5
F0
F9
F6
0C
F5
07
0F
FB
03
04
EA
F5
FC
08
03
14
0C
0C
06
04
0F
FF
FC
F5
FA
FA
FD
FA
00
F8
FB
05
F1
08
F2
FA
E3
06
02
03
FD
17
06
0D
0F
09
04
0E
09
0B
EF
F1
F5
FD
00
09
ED
E9
03
06
F5
F3
F5
F4
EE
0A
FF
06
F6
FD
04
FB
07
07
FD
01
F7
FC
00
FD
F5
F9
05
03
0C
07
0D
10
15
FF
EA
F0
FE
FD
08
01
07
02
F7
02
00
04
03
FF
08
0D
0B
10
04
EE
FF
02
0D
13
16
12
07
F5
F8
FA
FE
07
06
15
0D
0D
EC
F4
04
0D
06
FF
06
0C
FC
0C
07
08
0B
FA
0B
04
1E
16
FA
F9
F0
E4
0A
0F
10
FA
F4
F7
F3
EF
FC
00
FC
05
06
01
FC
07
04
00
F7
F3
F3
F9
FC
06
00
F7
ED
F8
0F
FE
0C
FC
F2
00
F4
F9
F5
00
02
01
F9
ED
FF
EA
FB
F9
F6
F1
E9
DB
E1
13
08
0B
EA
EA
06
E9
00
FD
F7
FE
F4
FE
06
10
1B
11
FC
F2
F5
F4
F4
FE
F3
EF
E4
E5
DA
06
03
01
ED
E5
06
F6
EB
08
F6
03
FF
F3
EA
FE
00
16
0B
02
F1
FC
EF
FC
F9
EA
DF
D8
F5
0E
04
00
FF
F8
09
F9
EF
05
EE
F6
FD
EB
FD
FA
14
0D
08
0F
FA
EE
F4
DE
E3
E3
E4
03
0B
14
1A
F4
F5
F8
13
01
03
FC
EA
E6
FC
F0
E9
04
0B
11
0F
0C
00
06
FB
FA
F8
F2
FC
09
1B
16
14
04
EC
02
1E
08
0F
0C
F2
F4
EC
F6
E1
F9
02
11
10
09
FF
03
10
00
06
F9
06
F7
0F
05
28
F5
F7
F6
0F
17
1E
08
01
01
F1
F8
E5
F6
03
0E
FD
12
10
0D
10
0E
0B
08
06
18
14
0E
18
09
FD
0E
F6
1A
0C
10
FD
FF
09
F7
F8
FA
04
F7
04
0E
13
1B
15
0C
06
0C
16
11
1F
19
07
FB
F3
1D
06
12
1E
0D
0A
0D
0A
FA
00
F2
F6
FB
09
15
13
19
11
12
0D
19
1F
11
26
0E
FC
05
09
14
0E
FF
15
05
FD
09
03
07
FA
FD
01
F0
05
05
11
19
18
22
13
0A
1B
31
1F
12
FE
0E
F9
19
0F
10
FF
FC
04
FE
FB
F8
FC
FF
EF
EE
F0
07
10
14
03
1B
16
10
19
3B
1D
0B
01
03
F6
13
12
0B
08
F7
F1
08
0C
0B
FE
02
FB
F9
F4
04
07
09
15
20
16
2B
30
2B
1A
1F
05
FD
FA
00
FA
E9
E3
F0
FB
FD
00
E8
FE
05
FD
EB
FA
04
22
2B
20
1F
18
1D
28
17
07
0E
08
F9
FF
09
04
F2
F4
04
EC
FA
F0
E9
EF
00
10
0C
0D
0F
28
2B
2B
2E
23
18
1A
15
0F
03
F9
02
08
FE
F9
06
EC
F3
F0
EB
E8
F6
EA
F8
FF
FE
14
14
15
02
0C
26
24
06
FB
FA
00
FF
FE
07
07
FD
02
02
F3
E7
F7
F1
E9
FD
0A
06
F7
ED
06
F9
E2
F3
F6
F6
F0
01
EA
06
05
FF
00
F7
0A
FB
09
02
06
04
03
01
04
FE
0A
04
06
0B
06
FD
09
F9
FF
FA
FD
F9
FD
FB
FA
08
02
02
02
09
05
FE
FF
F6
FA
08
07
F5
EC
E9
06
16
0C
05
FC
04
FE
FB
08
03
05
05
06
09
06
05
09
FE
F9
01
06
05
03
04
F1
F3
15
17
14
15
15
07
FD
05
0E
07
06
01
F8
10
05
F7
03
02
03
0E
13
F7
FB
F4
01
11
0A
0D
FA
06
F6
DE
F1
F8
F2
06
EE
F6
EC
F0
E4
EC
F2
FE
08
08
F9
0D
21
0E
FE
E0
F7
F8
DA
E8
F3
E4
EF
EA
F9
03
ED
00
0D
11
F6
FD
E1
D8
E3
F9
E9
FE
04
11
EF
F6
08
FF
05
E8
F5
EB
EC
EC
FF
07
06
05
F5
F6
FB
09
0F
11
14
FA
E0
EC
E8
03
07
17
05
03
FF
09
FE
FA
07
13
08
F9
08
00
08
0D
02
FB
10
0D
0C
1B
0D
05
CF
F3
05
00
1B
11
11
F4
F9
05
11
09
14
19
06
10
0C
16
12
0B
16
07
0E
12
0B
0B
1C
03
D9
12
03
F8
1E
11
0B
FB
F6
FB
09
09
11
15
18
18
1A
1F
0D
08
11
18
09
0C
07
16
16
F1
E8
0B
05
0A
1F
05
1D
07
01
02
16
17
11
1E
17
1A
F7
F7
F4
FC
05
F8
FA
FB
FF
19
14
E7
EF
05
12
0A
1D
07
0F
10
EF
04
0A
10
01
06
E9
CF
B2
C2
E9
F9
02
03
FA
FC
09
10
06
07
FD
07
0D
FF
10
F3
0F
F2
ED
F5
EB
DE
D0
C3
B4
90
AC
E6
F6
03
F9
F4
F7
FE
0C
17
05
FC
FD
F2
14
0E
F3
F7
E7
E4
D7
D6
BF
A9
92
A1
B0
D3
F0
00
08
02
FF
F4
E9
FD
FA
FC
EA
E8
13
04
00
FE
FB
03
E6
C5
BC
C7
B0
AD
AF
D5
E8
FC
0B
12
01
01
03
FA
EB
E1
F2
EC
F6
01
0E
F0
EE
FA
09
06
F7
DA
D4
CB
CC
D6
E7
00
10
1F
13
11
04
08
FF
FF
F9
F4
F7
F7
F1
04
FA
F8
00
F7
14
0C
E4
EE
E9
EF
F1
F1
F7
10
15
19
1E
0D
FE
04
0F
10
F4
F4
FD
F7
FB
0C
F3
03
F0
06
0C
17
0E
14
07
12
0C
0C
06
13
13
0E
1A
07
02
FD
04
0F
07
F6
F3
F2
00
00
E0
EF
F0
04
0D
21
20
15
1A
0F
09
19
08
0F
0F
16
12
04
00
07
07
FB
0B
F2
F8
F1
07
0C
EC
FB
F0
F7
0F
20
32
0B
0A
FE
03
01
0D
09
01
0D
0B
FE
FE
0B
01
0B
0C
02
F7
FB
F3
03
0C
19
06
0B
F7
0D
19
1A
0C
FD
0D
01
09
02
FC
FA
FE
00
FF
FA
00
F9
07
00
02
05
F2
05
1A
E9
0F
FB
ED
EB
1A
1F
08
0B
16
FF
FF
EE
EC
EE
08
11
F4
F7
FF
00
07
FF
07
FA
04
F2
06
FB
04
FD
0E
0B
13
12
00
0D
09
FA
FA
FC
F6
FC
0B
09
01
FF
FD
01
15
06
1D
04
F7
F3
ED
ED
FA
07
07
13
F4
05
14
11
00
FB
00
03
F3
F8
FC
F9
FF
0A
01
08
18
11
08
10
FB
F4
03
12
FF
FB
04
16
00
09
0B
12
0D
FE
03
EA
06
F7
0A
02
01
01
08
F5
F7
FC
01
FC
FE
F1
0C
0C
FD
02
06
17
22
1F
07
03
F8
06
03
F7
F3
F2
EC
F8
04
EF
F9
E1
E5
06
F2
F4
FD
F5
FA
08
03
FB
08
FC
0D
0A
01
ED
04
17
0B
02
FA
08
F8
EC
01
FD
E9
F1
F2
EC
DA
D7
E3
EC
09
05
FE
FC
02
08
FC
F0
E3
E4
06
00
0B
08
07
FB
FA
06
10
01
F4
F8
E6
F3
E3
F9
0B
09
0F
F6
FC
F8
07
F7
01
FA
0D
0F
25
1F
2B
28
3F
39
26
1D
26
1F
0B
12
03
04
F1
F3
01
F9
FF
F7
09
FD
FC
02
04
FB
06
FA
08
00
FF
00
F6
00
08
05
07
08
09
FF
05
F8
08
05
F6
07
F6
F7
FA
09
02
00
F8
01
FF
04
02
F9
00
00
F4
F4
FA
0A
0C
EF
FA
21
24
1A
14
0D
11
05
01
02
F9
FD
FF
00
04
04
0B
FC
00
FE
FA
E1
DE
D6
CF
EA
F6
0E
09
05
15
20
2D
2E
2B
19
0B
02
0A
06
FA
13
06
0A
1D
15
15
EF
E5
F1
F6
E1
D9
D4
F4
0A
13
08
0A
11
12
14
0F
09
F4
F3
00
FE
0A
18
1C
16
0D
00
F4
F7
F5
F5
F8
F2
F9
EF
FE
02
FC
FD
0D
05
01
05
F8
F3
DB
E1
FF
F7
03
1D
00
03
16
04
F6
F4
F2
F1
F7
F6
FD
FD
0F
0D
05
05
01
EE
E0
E6
E8
ED
C9
DF
F6
F6
03
0F
0B
0D
09
06
FF
04
F7
04
FF
EE
F2
FF
04
10
04
15
FF
E7
F0
E1
E7
E6
D7
DB
E3
06
0F
0C
24
2F
16
08
0B
02
07
0A
EE
F3
FC
00
00
10
0B
06
00
F8
EB
E5
E2
EC
FD
D9
E0
0F
F3
FB
0A
10
05
FB
0A
05
02
E3
E1
DD
FE
0D
0B
0D
0C
FA
F5
D8
D8
DD
D4
F8
F6
EE
F9
00
E4
F8
08
0C
FA
00
04
E5
D0
CB
D0
DB
00
19
1C
0F
FD
F7
FB
CE
C9
CA
DB
D3
EA
E3
EF
F6
E8
02
FF
EB
EB
E1
D4
C1
B8
E0
F0
FA
20
2B
12
14
F0
F0
E5
CF
E0
ED
E0
D4
F5
04
0C
FB
FB
F4
EC
E0
D9
D4
D9
DA
E9
09
15
27
31
1F
03
ED
DF
EF
E5
F1
E7
05
EF
C4
DD
F2
06
F7
F6
F5
F8
DF
F0
E8
F7
05
07
27
28
22
1C
0E
ED
EE
F0
E8
E4
F1
FA
FE
FE
DE
E0
EB
03
08
F2
FF
F1
F1
FD
03
03
09
13
12
1A
0F
08
0D
F1
FC
EE
04
FF
FF
04
F0
F9
D1
D9
E2
FB
F8
F4
0E
01
03
E7
F9
0B
08
0C
00
05
07
F8
F8
04
F8
FF
F6
16
18
1A
FE
E9
E3
DC
DE
F7
F6
F9
0A
02
05
E2
F5
05
01
FB
02
FC
06
F7
EC
ED
0F
00
05
0D
0D
1B
0E
07
DD
E2
E3
F1
FC
0D
13
F0
F0
F5
EF
F8
0D
02
02
FF
0B
06
F9
EB
0A
02
0D
06
04
0E
16
07
F5
C7
DB
F5
FA
19
0B
FB
F2
EF
F8
0C
10
01
04
F3
F7
05
05
FE
05
05
06
FC
F7
0C
0E
09
F6
E8
00
E3
EE
14
16
F5
F3
EB
FF
F9
05
04
F9
EC
04
15
FF
F7
06
03
0C
FB
F1
08
FC
F4
E4
F3
00
02
02
00
F2
18
01
F2
FF
FD
FC
12
03
FC
03
01
01
FB
F2
F0
07
F7
F4
EE
FE
F6
03
06
FF
0C
F6
0D
FA
0C
F4
FF
02
02
01
00
F9
FB
07
03
07
F9
F3
F5
05
F8
F6
F6
F8
01
09
03
09
09
FD
06
14
F9
F2
06
F8
EB
FA
F1
05
FC
02
03
06
07
F6
F8
00
F9
FD
02
05
F7
0C
F8
FE
07
FF
07
26
18
F4
F1
F9
F0
F3
FE
11
08
05
08
05
04
F4
00
04
F6
06
F7
07
10
F1
F4
06
FE
01
0A
1B
13
09
F4
F9
02
FB
09
0A
0C
1B
04
FD
03
F1
00
FF
F2
F6
FB
FE
F9
03
10
0A
F6
05
03
04
00
04
FF
FA
09
07
0F
17
11
07
FF
16
12
08
15
0C
FC
F0
0E
06
05
03
0B
12
04
FD
F7
FD
F7
05
19
0E
18
14
11
00
FF
10
05
09
F7
EF
F5
17
16
14
03
0B
02
06
03
06
F7
00
06
FF
FA
FE
01
F3
E8
F5
FC
03
00
F6
F6
F8
00
0F
17
17
06
13
0B
FC
FF
01
F8
FE
07
F8
FC
07
0A
F9
07
F5
F3
F2
EF
FB
E9
EB
EB
DE
F7
F0
EF
E5
EC
FD
07
02
00
07
03
04
FF
FA
03
F8
06
02
05
00
F7
04
04
04
FD
09
FF
00
04
FE
04
03
FA
05
07
FE
FA
F6
F7
F6
09
06
04
01
07
F6
FD
F6
FD
F7
F8
04
FC
F9
FE
04
01
08
0A
05
03
FC
F9
09
F9
04
04
FE
F8
04
FA
05
02
02
F8
00
FA
FC
EB
03
14
06
03
17
1B
19
11
12
0F
15
F1
FC
00
08
04
00
06
FB
F7
05
04
19
05
03
15
01
FB
EF
EE
FD
FA
FD
11
12
09
0F
FD
0D
04
F9
F2
00
FC
07
00
FD
FC
0E
1B
08
14
10
11
12
06
01
07
03
01
FB
10
0F
F6
F7
F6
F5
10
05
F0
EC
19
01
07
F9
FF
0E
0C
19
2F
1F
05
04
03
FE
0A
01
0A
FD
09
08
01
F2
03
0B
02
0F
04
00
FC
F6
F7
0A
FD
F5
F5
EE
01
10
0C
0C
0C
FF
0A
08
0B
FC
01
06
0F
00
FC
FC
04
03
FF
F1
07
0A
12
FB
13
EE
ED
09
17
06
FF
FD
08
FF
05
FE
04
0B
F6
05
04
FA
02
0F
0C
0D
F6
05
1B
15
17
01
EF
FA
FD
05
10
FA
00
FE
0B
FE
11
03
00
F4
02
00
05
03
FA
08
FB
14
FD
0A
13
F9
11
F7
FA
FF
03
12
05
05
07
03
FB
05
03
07
F9
08
06
FD
F7
FA
00
FA
00
1C
0A
01
08
EF
18
F4
EC
F9
18
F9
F9
FC
06
0B
00
FA
00
04
0C
06
F1
FB
FC
F7
FB
0A
0D
FD
F4
0F
1C
18
05
FB
F0
F1
FC
FE
05
FC
08
05
FA
03
03
0C
F9
0A
F9
0A
0A
0C
03
08
06
08
FD
FF
04
13
19
05
F3
F4
ED
08
03
FC
09
02
00
0B
0C
FA
0E
02
0E
F6
FE
03
00
05
0F
02
0A
F9
F9
21
0B
07
F6
E7
E6
F5
02
FB
12
05
08
0F
03
14
12
1C
05
07
02
FA
FC
FA
08
02
01
FB
05
0C
FD
FA
0D
EE
F4
DB
E8
FC
05
02
08
13
16
17
0B
13
15
08
FF
FD
ED
FC
08
FD
13
0A
F1
FF
FE
FE
07
1B
F3
CC
CA
DC
C6
E8
00
13
13
10
14
0F
06
03
FF
05
FE
FD
0C
08
15
FD
EF
08
F8
F6
10
09
F4
CF
C0
B2
A8
A2
CE
E2
F8
FE
FB
FD
06
F4
F9
04
FB
F0
FD
02
01
0D
E0
E7
FD
03
0F
0C
EF
CB
C7
C4
B6
A1
8C
81
9C
BB
C6
E6
F8
F1
F7
F9
F0
F3
FB
F2
FD
F8
DA
FB
F7
F4
0B
10
11
EC
E3
E3
D7
D1
AA
A9
AB
A3
CE
E8
FC
01
EF
FC
FB
FC
03
06
F0
F9
F1
EF
08
07
F8
03
14
F8
F8
F7
01
F6
F5
F9
DF
DB
E0
F9
F6
FD
EF
F1
FA
01
FE
FD
03
F5
15
00
10
F8
FB
F3
14
13
11
0D
19
24
1E
19
11
0C
09
01
FC
FA
07
FB
00
03
04
FC
00
0A
FB
FA
01
FE
FE
F2
FD
19
21
10
20
22
20
28
21
1E
14
FF
FF
F4
F8
04
00
F8
FA
FB
F4
FD
F2
0A
04
FD
0A
01
0C
11
13
05
14
14
16
1A
19
15
05
07
03
F6
03
08
0D
10
00
00
0D
F1
F7
0C
FC
02
FA
28
19
17
16
05
03
0A
0F
0B
0C
0C
03
03
0D
00
0E
06
02
F2
F7
E3
FB
FD
F8
0A
FE
05
04
06
0F
20
25
0F
06
01
05
06
04
01
06
0C
FC
FA
10
02
E2
E2
FA
F6
0E
03
FB
03
00
07
06
04
F3
1E
3A
16
1E
19
19
11
02
0E
10
02
FA
F1
FE
03
06
11
F9
08
12
18
0A
07
FD
FF
F9
02
01
2A
1D
1F
02
FD
09
12
07
FA
07
12
0B
1A
1A
1A
17
17
1B
09
FE
01
F4
05
F7
09
FF
04
FA
F3
E7
E2
F3
E3
E3
F8
FE
E2
E3
11
10
05
DD
FC
08
EA
F4
F2
FE
0A
FC
FE
09
09
F6
04
FF
FF
F8
06
01
07
F8
07
00
03
09
FE
F8
F7
09
0A
FB
07
02
05
F8
08
02
02
F9
06
F8
00
F6
05
03
09
FB
00
03
07
03
0E
10
06
17
FC
FE
0A
1C
12
03
0E
0A
FF
03
01
F8
02
F8
0A
02
0F
0B
FB
07
FD
F0
FB
F8
FC
F9
FD
08
1C
1E
00
11
18
13
14
07
F6
04
04
04
00
0A
F8
0A
05
08
F5
02
EB
FA
E2
DC
EF
E3
F7
01
F0
09
04
F1
FF
10
07
16
11
F2
04
06
04
06
F6
F8
FB
F5
EF
E3
D2
DA
CE
D1
E4
E1
F9
F0
F8
FD
FD
EF
F9
FF
0A
16
1C
20
03
0D
06
F8
FB
F9
F1
F3
E1
DD
D7
E2
D5
F6
F7
F9
02
F4
FD
FC
00
04
0F
FB
06
0A
19
0E
11
08
00
F6
0A
00
F4
F8
D6
D0
CE
CD
EC
F8
03
F5
08
03
F4
F9
03
06
15
0E
18
16
1F
27
17
18
02
EF
FD
F2
F4
DF
D9
C1
DC
E2
FA
00
11
01
FA
04
F8
05
03
1B
2B
1A
1E
1B
1B
1A
18
0F
02
F5
F3
EA
FA
EA
E7
E3
DE
E0
F4
12
16
0E
09
FF
F9
04
10
1F
2A
33
27
22
2B
2A
15
0C
FA
F7
FA
EF
F1
F4
E0
E2
D3
E2
F2
0B
11
10
00
FE
F2
ED
FE
03
04
12
0E
08
23
21
09
0B
FE
F6
F9
EF
03
E6
DE
E3
D5
E7
05
13
15
01
F3
F4
EA
D1
D3
D1
D2
EB
E2
F8
02
06
04
02
00
F7
FB
01
FD
F0
E9
EC
E0
E9
01
09
10
09
F4
E5
E2
D0
AC
AB
AD
C0
CB
D2
DF
FD
0E
F1
08
04
04
03
F1
EF
F7
F9
F2
F6
FE
16
0B
03
03
FE
FB
F9
D6
B4
C5
CB
C2
D1
DB
EA
F8
FD
FA
07
F6
04
EA
EC
03
FC
F4
02
08
05
1B
08
0C
1A
09
FF
FE
FB
F6
DD
C9
C9
DF
DE
FA
F5
01
04
FE
F2
EF
F7
F1
FE
FB
FC
07
03
00
0E
01
0D
0F
00
FB
FE
0A
D8
D4
C9
CC
F2
ED
04
02
09
F9
F2
FD
0F
01
13
02
FB
FB
FC
FC
06
09
FB
F7
03
05
F8
09
F0
E6
D3
D7
F3
DE
00
03
F6
F5
F9
EF
FC
F5
FD
07
F0
FA
09
FF
00
07
0A
FC
FF
04
01
FE
EE
F6
EE
E6
F2
F0
02
F7
FA
F2
08
F3
01
03
08
FA
04
0D
0C
0C
FF
FA
0C
F5
FE
FE
F6
08
00
FD
FD
D5
E0
F1
F7
08
F7
ED
06
01
F1
08
05
0B
16
01
04
13
02
F8
09
FB
0C
01
03
06
03
F3
EC
E5
DF
06
EC
FC
01
F5
ED
F0
FA
F6
F9
0F
03
03
0C
0E
FA
F7
00
FE
00
03
FE
F9
02
EB
EE
01
EF
F9
F3
FD
FF
FE
DB
F1
F8
01
FE
06
08
08
0E
F2
F0
F6
FA
F9
09
0B
09
0C
FE
05
04
F4
E8
FE
0C
F7
F3
FA
E8
F5
F6
FE
F3
FB
01
0D
07
0A
03
FB
F9
F9
03
0B
00
02
EE
02
FD
F1
F7
05
09
FF
F6
F1
04
FF
01
EE
FE
F9
0A
10
FF
16
04
10
0E
0C
15
13
12
0A
FC
FB
0F
F3
F1
F8
08
FE
F7
EB
FC
F9
08
F7
FC
04
F7
FA
04
0C
04
0B
0D
06
04
09
0A
FF
09
F7
F9
E4
EB
EE
F8
03
FD
FF
EF
E8
E8
F3
F5
03
F9
F8
FD
07
0E
0F
1C
12
00
FF
F8
00
01
F2
EB
F3
FB
FA
03
01
FC
FB
01
E9
DC
E4
EE
E5
F8
F0
00
01
FC
ED
F7
EF
10
08
05
0E
0F
FB
EF
FD
01
FF
FD
FE
05
F8
F8
07
EF
F5
FF
FE
FA
F6
06
09
F4
F6
0B
23
18
0B
01
0E
12
0A
FD
0A
03
F7
F9
02
FD
00
00
FB
FB
0B
06
07
0E
FC
08
0E
0C
0B
02
FE
04
FF
F5
02
03
02
FE
03
06
05
09
F9
00
FA
00
FD
FF
FD
F6
F6
FF
FC
FF
03
03
F4
03
F8
08
F8
08
02
FD
07
00
07
01
FD
F8
FF
0A
FF
01
08
00
ED
EC
02
01
05
FB
01
FE
04
E5
F5
EB
0C
0C
0F
1E
FA
FE
F6
FC
08
FB
06
F8
F6
F6
F5
0D
0D
FA
04
FE
04
10
FA
F1
F9
01
0E
17
04
04
FD
08
15
0C
F0
FE
0A
F6
F8
FB
EE
F4
1B
08
04
18
22
0E
11
0D
03
E8
FE
F9
04
09
0E
19
1E
27
23
0A
0E
03
0C
F8
0A
05
EC
14
01
F4
FE
02
FA
FB
F7
F9
03
01
F4
F0
F7
03
0D
0C
09
21
17
1E
25
1A
F7
FC
07
02
F1
00
EA
FD
EB
02
FF
08
0E
11
0F
0A
00
E7
F1
F9
F4
FB
0C
03
06
00
18
05
F8
FA
07
F2
1B
FE
03
0E
EF
01
0F
1C
04
06
01
FC
FF
00
08
02
03
09
0D
F3
ED
FB
1C
0F
13
07
F9
F1
16
10
01
02
07
06
1E
0E
03
01
0A
FC
0A
07
09
FD
FE
F1
FF
F4
F7
F7
0C
0D
1B
08
E9
FC
03
F8
05
07
0C
0F
19
11
FC
09
F3
FC
F9
0A
FA
F6
F1
00
F7
02
F9
03
1B
1F
0D
FF
0D
03
03
FB
00
09
07
08
0D
0F
02
04
FE
ED
FE
F6
F2
FD
E5
EB
04
09
07
F7
12
23
10
0A
03
FA
F3
FF
01
11
05
09
10
18
04
F9
00
F0
01
04
05
FA
F6
F7
05
F9
FF
FC
10
2A
19
F5
03
EE
02
0E
06
17
1C
0E
18
19
13
FC
0A
03
0A
15
21
16
0B
04
F0
EE
F4
00
02
0C
0B
F6
09
04
16
09
FE
0C
0D
0F
1D
08
07
04
EE
03
08
1A
15
0A
13
02
02
F1
F4
04
E9
EC
FC
EF
F5
F3
F9
00
07
15
FD
0A
08
04
04
03
FC
05
04
11
17
0F
0E
07
09
07
F4
F3
F8
EB
F5
FE
01
0D
E9
FA
04
07
00
0C
04
01
FE
FB
0A
01
FE
0B
0E
FF
03
10
FF
FA
FF
F2
EF
E3
E4
EC
08
07
FB
FE
FE
0E
0B
06
0B
05
0C
01
FB
F7
F9
F9
00
0B
07
08
0F
06
02
F8
E6
F0
FB
E4
06
03
00
F8
FF
FF
0E
08
0C
FC
07
02
04
08
E8
F6
FF
1B
19
0F
01
FB
FE
04
F8
F6
EB
DA
05
08
01
F2
03
01
02
0E
0B
04
0C
0E
08
FB
F8
FA
06
0F
21
06
06
FD
F6
FE
F5
F3
08
E9
ED
0D
13
04
01
FF
0C
06
0D
0D
05
FD
FF
05
03
F4
0E
15
13
03
0A
07
F3
F7
F2
F3
0A
E9
F6
EA
10
1D
08
00
F8
F8
09
07
FE
01
04
F7
FB
06
07
00
07
FD
02
F2
ED
F0
FB
E4
E4
EF
09
E9
FF
05
F7
F5
F6
EF
F9
05
F7
EF
F7
04
04
FD
01
F6
FF
01
FF
EF
E8
FD
0D
09
F5
F4
F6
04
F4
E3
EE
FA
D7
EB
F5
EA
E9
02
FC
03
F4
02
FC
04
F6
F1
FF
F7
FD
F1
16
FE
F9
08
F5
F4
EA
FF
F7
D9
D0
DD
DE
EA
00
FD
0C
F2
06
02
0E
0A
03
FE
00
09
02
03
1F
0B
02
FB
05
05
EE
14
01
FB
FB
DE
F6
ED
FD
F7
EF
ED
F8
07
05
F9
08
16
15
0E
09
22
14
FF
01
05
01
FE
0F
1A
12
08
0D
11
0D
FF
18
0B
08
13
11
0E
24
1B
02
14
20
13
1D
20
0C
E9
F8
06
01
06
00
16
29
2A
02
0C
0C
15
3A
40
21
31
23
23
3F
30
39
1F
29
30
34
32
19
F9
EF
00
05
06
F9
FD
19
23
2C
20
19
25
2D
27
32
3B
43
22
2F
33
26
12
2B
2B
19
13
0E
04
FC
01
04
F7
FB
0A
0A
07
0A
0D
10
F9
25
1B
11
04
0E
12
13
18
13
19
02
05
FF
FE
08
07
FF
FC
01
04
F9
FD
00
FC
F8
04
01
04
FB
02
04
07
07
FF
FB
FE
08
02
FA
07
F8
0A
0A
F8
FD
FC
09
02
07
08
05
FC
FD
13
0C
FD
02
0A
0D
15
0F
25
18
0C
01
0B
F2
02
F7
FE
02
FF
FA
F6
01
F8
09
04
0C
FE
FC
10
F4
E8
E1
F3
F2
EF
DC
EA
13
18
05
0F
0A
0B
FE
15
09
08
FE
FE
FB
FA
08
0E
09
04
01
FF
FC
F9
0A
F9
FD
0F
19
18
0B
0C
FE
01
0E
FA
F7
06
11
1B
1A
00
F7
04
F3
FD
F7
03
ED
F4
EB
08
F6
02
FC
F1
FD
09
FB
0F
0A
FD
05
FE
0E
10
FE
09
0E
F7
08
01
0A
F0
F6
F9
F5
F7
F5
02
EF
EA
FD
09
FB
FF
F6
FF
03
0E
05
01
03
13
0D
16
12
12
FE
F7
08
03
02
14
FF
F3
F9
ED
F8
F2
F9
00
FF
F8
FA
04
02
F7
FE
14
17
02
0F
26
14
10
04
06
0D
02
FE
FB
03
0C
04
0C
0C
0F
0F
0E
0E
F8
00
01
08
06
09
00
F9
01
15
2D
F9
0E
FC
16
0B
FF
EB
F8
08
06
12
0E
07
0C
1D
09
0E
01
07
FE
02
01
00
0C
FF
12
1C
1A
F6
05
14
0A
04
06
25
FE
00
09
00
08
0F
11
16
18
06
F9
FC
FC
FB
FC
FD
05
08
17
28
1F
F2
14
0C
07
0E
0C
14
FD
FC
08
FE
0A
05
1E
1D
0C
F3
F9
F1
FF
FE
00
F6
FC
FC
08
10
13
08
1A
04
08
1D
17
0A
FA
05
01
F7
FB
11
25
0C
FC
EF
E4
EE
0A
08
F6
F7
F4
F4
F0
05
FB
FC
14
FE
18
11
F1
FA
01
18
0A
0D
04
20
14
03
EB
DE
E4
ED
F9
FF
F2
03
EB
F3
FC
06
EC
F9
F8
02
0D
19
FC
F4
07
1C
0E
07
03
16
01
00
EF
F9
EF
EC
EF
FD
01
03
00
03
0B
FF
EC
01
F3
03
0B
18
F8
06
0A
03
05
0D
07
16
FA
F3
EA
EF
E9
E3
ED
FA
F7
07
03
15
28
1B
E7
EB
F6
06
FE
11
00
12
08
0A
05
F7
FF
FE
EF
FB
E3
E2
EA
DE
F2
FB
F9
FE
0C
02
21
10
E2
E2
02
0B
FC
15
02
07
1A
02
03
F7
ED
F1
E6
EC
D6
D2
DE
E1
FC
F5
04
00
05
14
08
FF
DF
D3
F7
03
04
04
15
08
07
F4
03
FA
E1
E8
F9
EC
D6
DB
E3
EB
F8
FF
FC
05
FE
03
03
04
CF
E3
FA
FD
0C
0F
08
09
F4
FE
04
F5
F1
02
FC
E1
D9
EB
DE
00
00
09
FF
10
13
1C
FA
EE
E3
E0
EA
F6
0A
1D
11
0C
0E
11
FC
06
08
00
F7
FB
E5
F8
FE
F9
12
FD
FC
0C
03
0B
F8
FE
EA
E5
F3
08
FE
F2
FE
04
FE
01
FB
11
0C
0C
09
12
0F
03
04
05
0D
01
00
F7
FC
09
F4
FD
E4
F2
FF
02
FF
F0
F0
EF
F5
FB
F6
FA
F6
06
02
16
08
06
08
03
FB
03
FE
FD
08
07
FD
F8
F6
F3
03
FD
F8
ED
E8
EF
FF
F5
F0
EE
F3
F4
FF
02
08
04
10
0A
08
12
0E
09
08
02
F6
F7
EB
F8
0C
01
0A
F8
0C
F7
F8
FA
E0
E8
F4
07
0A
FF
01
13
07
08
0C
10
00
F5
02
F8
E8
F0
00
F9
FB
08
03
FB
0A
01
FD
FA
F7
F7
F4
0F
F8
0B
0A
07
0E
0E
22
15
06
FF
FB
F6
FB
12
FD
FE
04
03
FA
F9
0A
08
FB
0D
11
13
0F
FE
09
1B
18
FB
07
1A
14
0F
1A
10
14
1B
0D
11
03
00
FD
00
0A
01
0A
FE
FA
F5
06
0E
18
FD
02
0B
17
0E
17
21
06
10
1E
04
08
1C
04
06
F8
FA
F8
05
06
04
FD
0D
15
33
14
0A
28
21
12
13
1B
1A
08
0E
1F
0F
0F
18
0B
18
0E
08
00
F6
F8
FA
09
F9
F9
F9
05
03
08
02
08
00
FF
00
FE
08
0B
08
F8
09
FF
07
FA
05
F7
06
07
02
FD
FE
02
FC
00
05
09
11
0C
10
0F
0E
08
0E
FA
F2
01
0B
03
0B
0E
18
0C
05
0A
09
FD
F7
F7
09
02
03
EB
F2
13
08
13
2B
39
39
2A
0C
F6
0D
FE
01
16
14
01
00
09
14
1D
20
0D
FF
04
FF
07
FE
FC
0D
07
12
00
03
22
11
16
0C
FF
08
0C
08
F3
11
06
F5
12
1D
16
12
EC
02
07
F7
FE
EA
E1
F6
07
16
16
0B
01
13
00
05
F4
FE
F9
04
05
04
0C
0B
0C
05
04
08
0E
0A
09
03
F8
FA
04
FE
EC
F4
F8
F7
EB
01
00
0B
09
13
F5
0A
FD
06
00
06
0B
01
1B
12
24
1D
0A
01
10
0F
F7
02
F8
EF
E4
EE
E6
EB
F6
FC
03
06
01
F6
F4
DD
EB
EC
EE
01
F4
1A
17
08
07
FB
15
0C
03
01
F0
EB
F8
FF
E4
EE
00
03
02
13
FA
EC
E8
E3
EF
F0
FA
FB
F4
FF
18
1A
06
08
F9
10
F5
FD
F4
F0
02
ED
EF
FE
FD
00
0D
FC
F9
F0
F4
E7
F9
F7
03
FB
08
0A
12
0A
FA
03
F5
FC
09
F1
EF
02
0D
F4
ED
F2
F3
01
08
04
FD
EE
F9
FC
FF
FC
0B
FD
FF
0C
0C
11
FD
F1
FA
F9
F0
FA
00
06
11
F9
00
E6
F3
02
00
08
FC
F9
0B
0B
0A
03
09
FC
08
18
FD
06
E6
F7
09
F0
FC
00
06
06
02
F3
EC
EA
F1
FE
FC
04
FE
03
F0
08
0E
F5
02
F5
06
14
1F
0B
DF
FA
02
F2
F0
F4
05
02
0F
00
F5
01
FE
05
1A
FF
F9
04
FF
F4
F3
FD
FD
0F
01
08
14
03
E8
07
F0
F8
E9
DD
F5
F4
F1
05
04
05
15
1E
0D
FC
04
FB
F2
FE
FE
0C
01
02
FD
03
06
15
22
0C
F3
EC
03
E6
F4
F9
F1
F0
F6
F6
11
1E
11
0C
08
F9
FE
F1
F9
F3
FF
FB
01
00
1C
27
14
07
F7
F4
1E
FD
F2
01
FE
F4
07
07
06
16
0E
0A
0F
0D
FC
03
FB
F8
F8
FD
F9
01
26
09
1C
08
FD
F3
17
0A
0A
06
08
10
13
14
1C
06
02
0F
17
0B
0F
06
0C
F6
0A
07
FF
07
3F
1B
1F
09
F3
06
1A
06
0D
13
14
14
0F
0F
FF
F6
04
0A
FF
0A
14
06
0C
F5
07
00
09
FB
18
FB
11
EE
E9
F5
1D
17
12
18
0B
06
FE
07
01
01
F4
FF
03
17
09
10
10
FD
0F
09
03
07
11
FF
13
F4
E2
0A
0A
1D
0E
08
0A
17
04
0E
06
01
F9
10
0B
14
14
0C
02
00
11
0B
10
EC
06
17
07
F8
F4
1B
0A
11
12
0C
10
07
13
0E
05
06
06
0C
11
0E
14
08
F2
FD
11
13
FE
F4
F6
0A
F2
FF
FF
19
17
0F
05
07
0E
16
1D
10
1F
0E
12
09
15
0D
0E
FD
FB
0C
03
0C
06
F0
08
1A
08
FC
F4
19
19
10
00
F4
0B
06
16
23
15
14
10
FD
03
01
03
F4
02
F4
EE
ED
EB
EC
FD
F3
01
F9
06
0F
21
26
06
F3
F9
09
13
14
04
FE
F1
FA
F2
E9
E8
F5
F2
F4
EC
F1
FC
F3
F0
FB
09
FA
02
03
0B
02
F7
EF
ED
F2
02
E9
F7
EC
E0
EB
DB
E8
D6
E4
FD
F5
FD
EF
EF
0C
FF
FD
09
FA
01
14
F2
EA
DD
E3
D3
CF
DF
EB
E3
D6
C5
C4
E3
E9
D7
E6
F6
F8
E5
FA
07
0D
09
0A
FE
00
05
02
05
E4
F0
E8
E0
E5
DF
DB
E9
E8
E6
D9
C9
E1
EC
F0
F8
E1
E6
EC
F2
F8
07
FE
0A
01
02
FC
06
06
FC
F2
F1
FA
F9
F3
F1
E8
E7
EF
F5
FE
F5
F4
FA
FD
01
07
F6
FF
FE
06
0A
FC
09
04
0A
FF
F7
F9
F7
F6
FF
FC
F9
F2
F5
05
00
F9
FB
02
FF
02
0A
F7
01
04
08
FA
FD
03
00
04
F6
FC
FE
E6
EC
ED
F4
E5
04
F6
F2
FB
04
F3
F1
F1
F2
E7
E8
ED
F8
03
04
06
FF
FF
FD
FF
0B
0C
F9
F0
F8
F2
EB
D5
D7
DE
D5
CB
DC
F2
EE
E0
E2
DE
EC
F6
E6
DD
FC
02
08
FB
04
FE
FF
07
F0
DF
D5
CD
DA
D5
D9
D8
C5
B3
CA
D7
E8
E2
D7
DB
F3
F6
FD
15
16
0F
02
08
04
EF
0E
F2
D7
D6
CC
BB
C2
C8
D0
C9
CF
C8
E2
CA
EA
EE
DE
E0
FA
06
10
26
1A
FE
01
08
01
DE
FC
EF
FC
DF
E0
F2
F5
EC
FC
F8
01
F0
EF
F2
F2
FF
EC
E4
F8
FB
FC
1E
15
14
05
F7
EB
FB
0C
F9
E1
EA
F5
0D
04
0E
0D
12
1A
12
10
0A
1D
12
F9
01
0F
00
F9
05
0E
F6
06
08
EF
1B
1C
ED
E7
05
00
0A
08
0F
19
16
1F
0C
17
13
0D
10
03
07
05
02
FB
08
FB
F3
0D
FB
09
0F
02
F5
FC
17
11
1F
18
16
11
09
06
11
0D
0F
0D
13
08
F9
05
F5
F2
02
00
E2
F3
14
1F
F8
FC
F6
03
12
0B
1C
12
18
19
08
14
19
18
0D
FF
0B
FC
05
02
09
E7
F4
F2
F3
0F
07
08
08
0D
FB
18
1E
0A
13
11
0C
06
FF
0C
12
0D
18
F4
FB
0A
0E
0A
02
F8
E8
0B
FF
11
00
F6
15
05
FE
0F
14
0A
0C
03
0F
00
00
11
15
19
0E
0B
09
10
15
01
13
00
F5
ED
FC
F2
07
05
0A
FD
0F
06
12
0E
10
06
08
FD
F5
F8
FF
08
09
0E
0E
00
05
FF
00
01
D6
E7
02
EC
FC
FD
1D
00
06
08
F7
07
0B
0A
09
F2
F2
FA
FA
0B
02
FD
0A
F7
04
02
F7
F3
F0
EF
F6
F9
EF
FE
0E
06
03
F5
F6
05
0D
FC
FB
FB
FB
F0
FB
FE
FC
FF
13
09
08
FE
05
0F
12
FE
0D
03
F9
06
DB
F9
01
F5
FD
FE
05
FB
F9
F9
F3
F1
F1
05
F9
0A
14
09
18
09
02
0F
FD
EC
F5
0D
03
F2
E9
EA
07
FE
01
F4
0C
FA
FA
F4
F9
EE
EF
FF
06
16
01
FC
0E
10
06
05
FB
D8
14
19
09
EE
E7
E1
F6
05
02
08
05
06
0A
FE
00
FF
F6
FD
FE
0E
01
03
03
FF
FF
05
04
04
0A
0A
16
F1
F8
DB
E4
FE
01
05
FE
FA
FA
0E
ED
F0
FE
F8
08
0F
F8
FF
FE
07
FF
EB
E9
EF
1D
FB
F2
19
07
ED
E5
F1
E6
E2
F4
F0
F5
EF
08
F4
FF
00
03
F7
F1
01
06
00
FA
F4
FB
F6
0B
F2
F9
08
EA
DC
E8
F4
E0
DF
E7
E7
EA
F2
FB
FA
F5
F0
FA
F8
EF
06
FB
F0
EF
F5
1A
0F
F9
05
FA
00
D8
CE
F6
FF
F7
EF
F9
F9
F3
F7
FE
ED
E9
FA
F9
FA
F9
E9
F8
EB
EC
F7
11
04
F8
04
F3
F5
DC
D4
F1
F6
0E
0B
11
FF
09
F9
FB
F2
FC
FB
F5
F4
F2
DC
EB
F0
F3
FF
19
11
EF
FF
08
F7
DF
E3
F2
03
19
19
0F
00
FA
FC
02
FB
F9
F2
00
F5
E9
E5
F5
F1
05
0E
11
FC
F1
06
FC
FD
08
08
20
1C
0A
1A
05
01
FC
05
F8
02
F3
00
F8
F8
F6
FA
0C
0D
11
15
F5
F4
F5
F6
08
01
FB
0F
28
1A
02
07
05
03
08
0B
FF
FB
10
0A
08
05
06
10
10
18
FF
FC
F8
05
F1
01
03
FD
F6
0E
FD
0E
16
1A
26
2C
1D
11
12
1B
34
1E
12
13
0F
1E
1F
2E
26
10
03
03
FF
09
F8
05
08
F6
00
06
15
0E
1D
17
2C
21
11
17
27
23
1F
25
1D
28
24
18
1A
06
FA
01
F9
FF
08
05
06
06
04
05
FA
FA
03
FB
FC
09
FA
07
F8
06
F7
05
F7
00
F9
03
FE
04
FB
09
06
03
F7
F9
FB
F8
08
0C
11
16
18
0A
07
0E
09
00
FB
17
0A
1E
21
07
05
10
06
F9
FE
05
F8
05
07
09
04
08
14
05
11
25
07
07
14
19
0A
16
0B
0F
0D
0B
00
08
0A
FC
FC
F6
01
F7
07
0A
FB
06
FD
09
0C
18
12
0F
1B
19
FB
02
14
20
0F
16
19
17
12
08
18
FB
EB
02
07
05
00
F7
00
F8
0E
0A
19
1C
1E
14
13
0B
0E
08
04
19
06
0A
0F
F7
0B
FB
04
0B
E8
DF
E5
F9
05
05
01
0A
0D
08
0F
1E
1B
13
04
12
03
F3
FE
F4
FB
FE
FA
F6
F8
F9
F2
FF
F4
F1
E4
03
0E
FA
01
06
0D
06
12
06
FF
FC
09
06
FA
06
F1
E9
EC
EE
F7
EF
FA
F2
FA
09
EE
DD
E2
F2
F1
F8
FA
11
09
12
0E
00
03
03
F9
08
08
05
F6
E7
FB
F5
E9
E8
FA
EF
FB
F1
F2
FB
EC
E5
E6
FD
03
17
F3
0A
0B
09
05
0B
02
00
0C
02
07
05
0F
0E
F9
FB
00
08
FA
EB
FF
01
EC
EC
F5
FA
FD
09
09
0A
1B
03
0A
17
10
13
0D
0D
12
27
11
18
FF
F8
FC
07
00
F9
19
08
F8
FF
E9
00
04
08
04
11
11
00
07
14
0F
13
1C
15
1E
25
17
0B
00
07
04
0B
0C
0D
16
13
F3
06
06
0A
02
03
13
14
09
03
F9
07
12
12
04
06
F8
08
05
FC
EE
F6
0D
FD
13
07
12
14
0A
01
F3
0D
F7
12
17
F0
F3
EE
FB
04
01
FF
EB
F3
E5
EA
F3
F6
04
FC
14
FC
05
FD
0D
12
0B
16
FE
09
0D
07
0A
FF
E3
FA
09
F5
FC
E9
DE
D1
E0
E2
F0
F6
FF
0D
08
FD
F5
08
FF
18
27
1B
FB
F1
06
04
1A
FD
EA
05
FD
F8
00
E9
E9
E4
E6
FB
0A
13
02
08
FF
02
00
08
10
1B
1F
F9
ED
FD
05
10
0F
EF
E6
06
FF
F7
F7
E9
E0
DC
EE
02
0E
0B
F8
FE
FB
05
0A
14
10
12
1A
DB
E3
FD
FD
12
19
F7
02
0A
09
01
FE
FB
EF
EA
EA
FF
0D
04
F4
E6
F3
05
FF
0A
06
0E
19
CA
DD
F7
02
0B
18
FD
07
0F
FF
0C
F0
F5
F4
EA
F2
F6
0B
0A
F8
F6
EE
F9
FF
09
FF
0C
09
E7
EE
EB
02
11
1C
09
03
0F
03
0A
FE
F8
EE
F7
EA
F6
0A
14
04
07
0E
0A
0C
00
0A
FF
FB
F0
EA
09
00
15
01
06
FD
00
00
11
19
10
ED
E4
EA
FA
0F
03
17
10
05
0B
FF
FB
F7
F7
01
08
F1
0E
F8
02
EC
ED
F8
00
02
0D
FE
0F
00
F5
F1
F1
02
14
16
0E
12
0B
0C
F9
F4
E3
F2
F2
F6
FA
02
02
EF
FA
FB
FB
FF
FC
FE
FD
04
F3
0B
F5
FA
01
0A
14
12
0D
0A
F8
EE
D1
E5
06
06
02
FF
04
EB
EE
F9
0C
FE
00
F7
F8
FA
FB
FB
FC
F9
16
02
0C
09
02
01
F1
DC
C7
D0
FE
F6
09
01
F8
12
03
05
09
07
01
E5
F9
00
01
FE
FC
02
02
F7
FE
FE
F2
E2
E8
CF
C3
F3
F4
F5
04
05
02
14
08
2F
21
15
09
0D
FE
10
03
04
0B
09
FB
FB
02
E8
F2
F2
F3
D9
DB
F3
F2
14
FE
FE
04
F7
08
17
0D
10
1C
20
18
07
FC
1B
19
09
F6
0F
00
F5
09
F5
FB
02
F9
09
F4
03
07
FE
FB
01
F8
E9
F0
EA
FE
0A
FF
0A
07
FD
19
08
FD
08
0E
1B
25
0E
FB
FF
FD
F7
01
F9
F9
01
01
03
03
12
12
1B
05
0D
18
1E
FC
F7
19
11
07
F3
05
04
FD
03
03
0A
0D
05
F9
07
08
FC
09
FC
F9
02
05
05
F7
09
02
F9
07
FB
0A
08
09
08
04
FA
07
02
03
FB
FD
FD
08
FB
F6
06
FC
03
05
FB
04
01
FC
02
05
01
08
03
F2
07
FD
04
FA
03
F6
F3
F4
04
01
FC
FB
06
FB
F8
02
FD
F4
F6
F9
F9
F3
08
15
FF
F9
FE
08
00
F4
FC
EE
FC
F2
EF
EE
03
FE
FB
04
07
01
F8
FE
03
04
F6
F4
FE
ED
FE
0E
02
F5
00
0C
F1
ED
EF
FE
06
FC
FD
01
FB
EE
F7
0F
05
02
03
F3
09
EC
E6
ED
FC
00
FD
04
01
0D
16
FB
00
FC
04
16
09
03
01
08
FF
F3
01
01
19
04
F7
FE
F9
09
F2
EF
FF
F3
F8
F2
FF
0C
03
FE
05
0A
12
11
0E
0D
0C
11
16
FF
0D
23
14
EE
F6
11
FB
E4
F4
03
07
FD
04
07
02
0E
0A
09
04
1A
11
17
12
03
02
00
0E
0B
1A
1A
0D
FF
05
15
FD
F1
EA
00
09
00
FD
FD
0D
14
03
07
0F
0F
16
08
21
0D
0C
13
1A
10
FA
01
F9
FF
FC
01
F1
03
0A
09
F5
F5
FF
03
16
FF
0A
13
15
0D
1A
22
12
13
0D
12
0D
0C
08
FF
0C
16
FF
06
06
0C
F9
EA
EE
08
0B
13
08
06
03
05
01
F8
11
0C
00
0A
FF
12
0B
21
22
15
0C
EC
F3
F9
0D
FA
00
F7
F7
F5
08
12
05
06
FD
13
FE
FA
FE
EC
FC
FF
06
FF
13
1D
10
0C
13
F2
05
F7
E5
ED
0B
F3
FD
FF
03
07
F5
02
02
11
FB
E9
DF
E5
FC
F8
E4
F1
07
FC
02
0C
28
FD
FC
0E
01
FD
E7
F3
F9
03
0D
FF
05
FB
0D
07
F8
DC
DA
F5
F3
02
EA
F5
F9
ED
F1
0C
1D
F1
FE
FD
06
FB
E5
E4
F2
07
F9
0B
F4
FF
00
FA
FA
EE
E7
EB
F9
F2
F7
EB
F7
E1
E7
FD
03
12
FE
F2
FE
E9
E4
E8
EB
FB
FA
F0
FC
FD
09
0D
F7
F4
DE
F0
F1
E2
00
F5
E5
F8
06
F9
18
05
0B
F1
EC
E3
E6
F7
FE
01
F4
04
F5
0D
01
01
01
E3
ED
E1
E6
E6
F7
FC
E4
F5
09
FB
FB
07
F5
01
F4
F5
E8
EB
EF
F9
02
0C
0F
0B
10
0A
F6
EA
EC
E6
E3
FD
E8
FF
FB
04
0A
12
13
0B
FF
FC
E4
01
00
EC
FA
FA
FA
0F
13
0A
02
00
F0
E6
F5
F3
EB
FA
01
F5
02
0A
06
FD
09
0C
0C
F0
E3
F5
06
FE
ED
F1
F8
FA
FB
F7
ED
F7
F0
F4
00
F2
F6
F8
02
01
09
0A
0D
F3
FF
0C
FE
F3
05
F6
0A
F7
04
F7
F7
EA
EC
F0
F1
EF
F1
F4
02
06
05
00
05
FE
14
0B
FF
10
1B
0C
00
F8
16
08
08
16
0D
0F
09
FB
F6
FF
01
00
F9
17
0A
1B
11
14
10
0B
19
2B
05
21
09
F7
0C
FB
09
1B
17
15
0F
12
16
08
0C
0D
07
0A
1D
19
0C
0E
17
1E
1C
0E
21
38
26
16
12
F8
05
FC
02
17
0E
13
1A
21
11
1C
14
1C
18
09
18
11
19
16
0D
05
14
06
11
27
1D
1A
0B
02
FA
01
09
12
1C
1F
06
14
18
1C
22
2C
1A
16
17
19
1D
16
04
12
0F
04
28
29
23
0E
06
05
F8
01
ED
FF
07
02
02
FD
14
18
0D
0F
1C
23
1D
0E
15
13
31
1B
09
04
13
0D
21
FD
06
01
09
01
FF
FE
DB
D3
FC
FF
09
05
05
FE
17
11
FA
16
0D
22
26
2B
13
0A
10
1A
14
FB
03
04
00
F9
F6
00
FA
ED
E6
EE
F7
E0
01
0C
FE
08
F6
08
15
0D
09
20
02
F2
0F
22
06
FD
08
03
01
FA
02
F9
FD
05
F9
03
01
FF
03
FA
07
0E
0A
F6
E6
E6
F8
FB
E7
F1
FD
FB
F9
00
05
0A
06
08
F6
0A
FE
F7
FE
08
FB
FD
F7
F6
08
0D
FC
F5
00
00
F7
08
F7
FD
05
00
00
FF
07
F8
FF
03
06
FD
03
0C
0F
0D
14
0C
18
15
1B
15
02
15
0A
10
1D
13
18
1C
14
0C
05
01
FF
FC
F7
08
FE
0C
17
11
09
0E
15
F2
0B
1B
14
10
14
1A
1E
13
F2
08
00
06
17
09
06
FC
04
08
FA
00
02
0C
17
21
16
12
11
FF
0D
14
18
16
1A
12
09
09
02
FE
11
F5
E5
FB
0B
F6
EC
02
00
06
01
12
15
24
15
FF
09
F7
03
FA
02
17
02
F6
F9
F7
06
0B
02
01
0B
02
E8
D8
F0
FD
08
04
15
01
10
1F
10
FF
FA
07
11
F2
0E
09
04
03
FB
EC
FB
FB
F1
04
FC
03
F8
E6
F1
00
FF
F8
F8
F1
04
04
F8
F5
ED
F2
04
08
18
1F
15
F6
F0
EC
E1
DA
E6
F4
03
03
11
FE
FE
F0
FB
09
F5
FC
0A
0B
ED
E9
E4
E9
F0
12
10
0F
1A
F8
EF
E3
D8
E5
E8
F2
FB
12
0F
02
F2
EE
0A
04
F4
0F
06
ED
E5
EC
EC
ED
E8
FA
01
16
13
05
E0
E0
DE
DB
F7
F9
0A
FF
0A
FD
EE
EE
02
F8
0F
14
17
FB
F0
EC
E2
D5
E7
F0
FB
11
18
F8
D4
DC
EC
F2
04
02
02
0C
0C
04
ED
EC
01
FC
21
0C
04
EA
EA
E8
E2
E8
EA
01
16
28
1B
E6
F0
F2
FE
FC
02
07
FA
F7
EF
F8
ED
E7
0F
0B
05
1F
02
E6
E1
E4
E4
F0
FF
18
33
21
F9
F5
F4
FC
05
FE
02
FA
EC
F1
E5
DC
DC
01
FC
10
05
FE
FA
E6
DF
F1
0B
13
1D
37
2E
1E
00
FB
F1
F4
F6
06
EF
F3
F7
F4
E3
D6
E7
08
04
05
16
07
E7
00
0C
06
08
16
28
24
18
05
F8
EC
F7
FF
04
F3
F2
F8
F9
05
ED
E2
E6
F1
12
12
0B
12
F6
02
FD
FA
12
23
0F
09
0A
EA
E8
E5
F5
FE
F8
F7
F9
05
15
0F
FD
ED
E1
F8
00
07
14
05
02
00
FC
09
0D
15
08
FA
FC
EE
EA
EF
F4
FB
FF
06
FE
14
1E
1A
FE
F6
D8
EC
08
0E
0A
1C
19
07
F1
06
FC
0C
F8
06
EB
ED
F7
03
FA
FD
0F
15
0B
03
19
09
0D
FA
CE
F1
FA
03
06
26
2B
03
EE
F4
03
03
0F
07
EC
F8
F8
FE
04
04
10
11
FC
02
1C
01
FF
F4
E5
F8
F5
11
01
2E
1D
08
07
FC
01
03
0E
F9
03
FA
09
14
12
15
16
0D
02
14
14
FB
FD
0A
F0
F9
05
0A
F4
23
19
0B
06
0A
0F
1A
11
1D
0C
12
1E
1D
15
0B
04
F9
0C
04
FB
FE
02
02
EA
FD
F6
11
E9
0E
0C
04
F8
FC
FE
12
1A
1B
14
15
17
15
11
FF
0B
08
0C
0A
01
F9
F3
00
0E
0F
02
01
EB
0A
EA
F7
F0
FC
FE
F6
FC
F9
11
08
FE
03
FE
FF
05
0D
08
F1
F9
E5
F3
F8
08
FD
FE
FC
F7
FD
E9
FB
F8
F9
F4
01
F4
FD
FE
F7
F8
06
F8
FE
0D
13
08
04
04
00
E0
FD
16
0B
08
07
0F
0B
05
F7
F8
05
07
05
17
04
F7
EE
08
02
F1
F8
F7
FD
FD
F8
FA
F6
F7
F7
04
06
04
FC
0D
22
03
0E
00
05
FA
11
FC
F1
F9
F3
FD
01
EE
FF
F4
F7
00
11
02
06
F5
15
09
06
09
01
04
F7
FF
F6
01
FD
FD
05
F7
ED
F3
ED
EA
F6
E2
DF
EC
DE
F5
1B
19
10
FB
FE
09
0A
03
02
08
F0
F5
F8
E8
DE
F5
09
00
F9
EC
F4
DE
F6
F5
E7
F4
1A
02
09
18
0D
00
F9
00
09
01
01
FE
FC
F8
0C
EF
FA
F0
F3
F5
E9
EA
F3
D4
ED
F5
0C
14
08
06
0F
1C
0A
F6
F9
FD
00
04
00
09
07
09
05
FB
07
07
FA
02
03
00
0C
F3
F6
F9
04
04
04
F7
08
03
FB
01
FC
03
00
01
04
00
05
08
0C
12
13
06
01
24
0E
16
22
F5
0C
10
10
24
24
1D
12
12
12
F9
08
FD
FC
02
FE
02
17
10
04
13
12
14
FC
01
1B
06
24
29
1A
16
06
FD
0A
06
07
13
11
08
FC
FA
FE
F8
04
F2
03
FB
F5
0B
FF
E4
02
EA
E8
ED
0E
0C
0C
08
03
FC
00
F2
06
FE
13
04
F5
FF
FB
FB
02
02
F3
0C
04
07
0B
08
FE
E4
E6
F8
08
05
FD
08
11
00
09
0A
FE
F7
04
EA
E7
F3
09
F9
FB
07
ED
12
0A
08
FF
06
EF
F7
FF
0B
0A
16
02
EE
F4
EE
06
FB
FE
EF
05
00
EA
DF
02
0A
FE
02
F7
10
0E
FF
06
02
FB
F3
0D
07
04
FD
F7
EA
F1
E6
EF
F6
F3
ED
F1
F0
E3
DD
FB
05
E3
15
FD
F8
FA
FB
F1
F5
01
07
05
07
08
06
00
FC
F7
FF
E9
F1
07
FC
F0
F7
E0
EE
F8
12
E3
12
0A
FA
04
FF
F6
FD
0D
0C
0B
FE
FB
04
FD
F1
F1
F4
F6
F9
F3
DF
DB
F6
EB
E7
E4
F2
EF
08
05
00
01
F3
F9
FE
08
07
05
05
F3
FF
F4
EA
EE
F6
FE
01
FE
D7
ED
F6
D2
CF
F2
FF
F3
11
F7
03
05
FA
01
FE
04
08
0E
FE
04
FE
03
FB
02
0D
FD
FC
F9
F0
F3
F4
CF
D4
F6
F9
16
10
F6
03
00
F7
07
08
15
0A
0C
03
01
09
05
0C
FE
FE
05
FB
10
0B
04
F2
C9
CD
EC
04
0B
FF
07
F8
F5
FC
05
0D
1B
03
0C
03
F3
EE
F4
03
0B
FF
0A
00
0D
1B
0C
05
D2
D8
E9
10
03
F8
F8
0D
FD
0F
11
10
0E
15
0A
FE
F0
E7
FC
07
06
0C
0F
0B
0C
1F
0D
FB
EE
E4
FB
F2
F8
ED
F3
F2
1C
0F
06
12
1C
13
18
F0
F9
E3
F3
04
10
0A
03
0D
13
14
FD
ED
FF
E5
06
F2
F5
F0
F4
FC
FB
0B
0B
15
19
13
07
F1
EC
FA
F2
0E
13
0E
00
06
03
03
F3
F0
17
E0
EA
FB
F9
02
FA
F8
00
04
12
19
08
FD
0B
E0
DE
00
04
19
0C
03
FF
02
FE
E6
DE
ED
0B
DA
F1
FD
F7
0D
FC
F8
06
03
01
00
00
06
F5
E8
E6
19
24
15
00
0C
FD
0A
E9
F7
ED
06
0E
EC
FD
F7
FA
0C
FB
0F
EF
F3
02
02
06
F6
EA
F3
FC
14
20
05
FF
12
00
FF
ED
F8
EA
00
08
ED
FF
00
F7
09
F2
0D
F6
08
00
F7
F4
00
FC
0E
10
19
14
01
03
07
FC
00
FA
FB
00
00
08
FA
05
00
0F
0A
03
03
FA
06
ED
ED
E9
05
FF
1A
0C
0B
13
01
FF
09
04
F5
F3
F5
F4
00
F8
00
F8
0C
FD
02
09
FC
08
F9
F9
EE
F6
06
01
05
12
1E
11
08
09
06
FA
08
07
07
04
09
FD
01
F8
00
FA
06
05
07
0D
F9
F3
FA
F3
03
F3
FD
0A
11
11
15
04
0F
11
0F
16
09
EE
FF
F7
EF
02
09
02
DF
F0
E9
F0
E7
F4
E2
EA
E4
DB
FC
FD
04
0A
14
15
0B
16
17
1D
0E
F4
F5
F5
F5
FD
08
F7
FF
F7
E2
EA
DE
E2
DF
E3
F0
E0
E0
ED
E8
F8
F8
F3
FF
04
04
00
EF
02
00
16
FD
09
FC
0A
FF
05
03
09
E7
E6
DF
EC
EA
F5
E8
DA
F3
F3
E7
E7
F4
DA
F5
06
00
F8
E4
07
0B
F8
FE
00
FA
FE
20
20
1C
06
0C
16
0A
F5
E8
EE
03
00
F9
FC
F4
F2
EA
FA
FD
10
0E
F8
02
F6
F8
FB
08
03
FF
F6
02
07
FF
FA
0A
FD
01
F7
0C
07
0E
0D
13
1C
FE
00
F9
EB
06
09
0A
04
02
09
F8
FC
FB
F8
07
F6
05
04
05
F9
03
0E
05
FF
FB
FC
03
FB
0A
FA
F6
FC
00
09
07
07
FF
09
06
09
FE
F9
03
0C
19
04
1D
F5
FC
03
F6
F4
01
F2
19
1C
1C
12
10
0B
FA
FF
06
F7
FC
FB
F7
EF
02
0A
01
04
2C
1E
10
1B
1B
02
24
14
00
05
EE
F9
FC
0B
01
00
11
0C
F9
08
FB
08
FD
F7
FD
1A
2D
1A
FD
FF
0F
1D
18
FC
10
F9
00
F6
FA
E8
F6
F9
F4
FF
FD
EE
FB
F8
07
06
0C
F6
0B
14
21
06
06
03
07
0E
0B
00
EE
EB
F7
FC
E8
DE
E0
DD
ED
F0
00
00
EB
FF
06
04
06
02
22
10
11
13
31
21
06
03
F4
E3
EF
FE
00
FF
E9
E8
D9
DC
E7
EF
FB
0F
E8
02
00
FD
08
20
23
0F
06
1B
1F
1A
FA
FD
FE
F5
F1
03
0B
15
01
F9
EE
07
F0
E7
F1
FF
02
04
05
04
10
1C
18
F3
12
0E
FC
F9
F5
FE
F7
00
F3
04
04
08
FF
02
FB
F8
F7
EE
02
06
0C
02
EF
0D
1A
16
0A
00
05
02
01
01
04
0E
01
07
FF
F7
F7
F3
0C
06
03
06
05
F7
01
0B
05
F4
0A
17
0B
03
FC
05
06
04
05
01
06
05
07
05
FC
F5
F7
FB
FC
0B
10
14
FF
FD
F2
F6
F7
FE
08
17
14
0D
F2
0F
11
18
04
07
04
07
03
01
E3
E5
E6
F1
06
06
0B
09
08
F0
FA
F7
DF
04
09
F5
2E
0B
F3
0F
0F
04
06
0F
07
F7
03
EE
E7
F7
F9
0F
0E
26
29
19
0F
F2
D9
E6
D9
F5
0A
18
29
01
FE
0D
FE
00
07
F4
02
F6
EC
ED
F1
08
0D
0A
16
20
1D
0E
07
F7
E3
E6
DB
08
F5
04
17
F7
07
11
FE
FE
01
F6
08
F6
E0
E9
F9
11
1D
0D
11
1E
16
12
09
02
07
F1
EE
0B
EF
09
15
FE
FE
FF
03
06
FD
00
05
F6
EF
FE
0C
1C
23
18
1D
1B
1F
11
07
02
F0
0C
E3
0B
F6
02
F0
15
05
FD
03
04
05
FE
F9
FC
05
02
16
1B
1B
1D
1D
23
1E
15
0A
FB
E6
02
1F
00
0C
FA
F7
FD
10
FE
18
12
02
FA
FE
FE
0A
0B
16
1C
11
23
12
13
1D
0C
02
F1
FB
0A
04
F9
01
EC
17
FC
0A
FF
0C
09
05
F2
EF
02
01
16
1F
17
13
0E
10
03
FC
0E
F0
E5
FF
38
0E
F3
0D
02
19
01
0E
FB
03
07
FA
DF
DB
EE
0F
1F
21
05
15
09
0E
0C
F2
04
F5
E2
06
29
0D
EF
07
FD
12
05
1D
0A
FD
07
EF
EB
EC
00
09
10
19
06
FD
F9
F6
F5
F5
F3
E9
E1
E5
01
09
F4
03
F4
14
0A
FC
04
00
07
03
ED
EE
03
FF
FF
13
FB
F5
EE
F3
E3
EB
F0
EA
F2
F9
F5
0F
F8
04
0E
12
FA
FD
F5
E7
F5
01
00
F6
FB
0B
0A
FD
F3
0D
FC
EA
FA
EB
DD
EA
FB
F5
F0
E3
00
01
F6
1D
E9
F6
FC
E9
F7
FE
FE
FA
FB
EE
F2
EF
EE
F2
F2
E1
F1
E9
ED
F8
E4
FF
F4
F1
FE
FC
FF
F6
EA
EE
F6
05
08
03
EF
F9
0A
FD
F4
E9
E3
F4
DB
EC
F0
FC
04
FF
F3
F3
EF
F7
03
09
02
FF
0D
11
17
1F
15
04
FB
FE
18
05
FF
F2
F8
04
ED
EC
F2
05
04
0D
01
F7
0F
FF
03
09
FD
F5
FB
2B
23
19
05
01
F3
0D
18
07
FF
0F
FE
02
F6
03
E3
F3
F2
E9
E5
E6
FE
FC
FD
FB
07
07
03
12
0A
14
23
26
1F
1C
00
04
14
21
02
13
06
03
01
F9
11
1A
0F
0F
0E
F7
FA
F8
FD
01
05
06
15
FC
FA
FD
12
0D
F6
02
0D
1E
03
1C
2D
1B
1C
14
20
11
18
F7
FA
00
FD
06
FD
FB
FA
F7
FE
FA
01
0A
04
01
F9
04
00
FE
06
0A
06
F7
00
FF
01
00
FE
F6
F6
00
F8
0A
FD
09
09
F6
06
03
09
F8
04
FB
05
04
08
F7
05
0C
FB
01
FE
FF
07
08
F8
0A
FF
F6
04
05
FD
0A
FA
FB
FD
08
04
03
FE
F2
04
0D
00
07
F1
F7
E7
F6
F6
F3
FE
F2
11
06
FE
FD
08
08
07
17
0E
F6
F4
FE
F9
E4
F0
F1
E8
EA
ED
DC
EC
E8
D0
D5
FA
F2
F7
08
0B
03
04
03
05
FB
FE
08
F5
03
06
07
04
04
01
F7
E0
EF
F0
F6
F2
00
FA
05
FC
FE
FD
09
0F
F3
0A
0E
F1
01
F7
19
03
06
F7
FA
FA
0B
08
00
F2
00
05
01
03
0C
FB
04
0E
FD
0C
13
16
FE
07
F9
F9
FD
04
ED
FA
0C
06
FA
04
05
03
FB
02
0C
11
02
F4
F1
FE
FE
FB
06
0E
08
0F
FA
04
01
ED
0B
08
FD
16
0B
0B
FA
07
05
FF
00
FB
02
0D
02
FA
FA
FC
00
FF
02
10
0B
0C
E2
EB
0B
F7
0F
16
05
0C
15
14
10
FC
03
03
FC
0A
06
13
14
05
09
0A
FF
05
04
07
05
15
EF
F9
21
0C
02
07
09
10
0F
16
01
12
11
12
10
12
16
25
1E
07
07
00
FF
FB
FF
0A
08
0C
FE
05
2F
1A
05
F9
1F
07
0C
10
0F
02
03
09
18
18
14
0F
04
05
F5
06
03
FE
07
04
00
01
0A
05
14
1B
07
06
FF
02
FE
0F
12
20
14
1B
08
F6
F7
DA
E8
F0
F9
FC
F6
FE
F8
03
FF
FF
FF
F2
14
00
09
05
06
F4
FF
14
04
1C
19
0B
EB
D4
DC
CB
EA
EB
F5
FB
FF
F7
F1
F2
F1
ED
0F
0B
0E
14
04
0D
15
F7
EE
FB
FD
FD
01
FC
DE
C7
C7
E1
FE
F3
E9
06
F9
E9
EC
EF
07
ED
07
F9
12
1D
00
F9
12
F1
EF
EF
E0
E3
ED
D1
CF
C9
D6
FA
FE
FD
EC
F0
F3
EB
E8
F2
06
F3
FC
05
17
0D
06
F4
08
F0
E5
EB
E1
D9
BA
BF
BC
EA
0C
1B
06
F7
E7
F3
E6
F1
DF
F6
F9
07
1D
03
11
12
FD
FD
0C
E2
D7
D9
C1
B5
B3
C6
E0
FF
20
14
0C
00
06
FB
F4
F6
EC
FC
F8
02
0C
0A
20
0D
06
FF
F1
EE
E1
DB
C8
C5
C2
EC
0D
16
24
16
13
03
00
F5
02
FC
F3
F8
FC
14
01
07
04
08
FE
02
F7
F2
F1
F0
E2
ED
E2
0C
0C
16
29
22
0A
FF
FB
F8
00
F5
E7
F1
FD
FA
07
FF
09
15
0C
07
F8
EC
F2
E4
EF
F5
06
07
14
17
19
26
12
0D
05
0B
02
F6
01
FF
F4
04
FE
15
13
13
FE
05
0D
ED
F6
FC
05
FC
08
15
13
28
27
16
0A
1B
0A
09
0B
FB
02
07
FF
0A
0C
13
0F
07
0B
FA
FE
F2
F7
0A
03
06
FD
12
14
17
0B
0A
14
19
0C
15
06
12
05
0D
03
0E
08
0A
04
FD
09
FE
07
F8
FE
0D
0C
03
FE
0A
FF
06
FD
10
1A
0E
02
07
17
10
05
FC
F5
02
00
0C
0A
08
0A
05
F7
E9
FA
FD
0B
05
00
03
06
10
1A
12
0C
11
1C
16
06
15
F4
F4
02
08
09
14
17
F8
06
09
FD
E4
ED
F9
F2
E5
F0
FE
F7
05
09
0A
16
0A
00
14
1A
1A
F6
FA
05
02
19
13
01
07
07
01
FC
13
03
F3
05
FA
F6
EC
DC
E8
F2
04
09
FE
F0
F1
FF
FC
F4
DF
EE
EB
04
FA
07
F9
FA
F9
FB
00
F0
EA
F9
07
02
E4
E5
EB
EB
F9
F1
E7
E1
EB
07
11
E9
E0
ED
08
06
04
00
FF
FE
F8
01
05
15
15
2C
24
11
1E
19
FC
F6
1A
13
14
11
04
EC
FE
F7
00
F6
06
04
FB
F9
F9
05
FD
05
FE
07
F9
03
F7
07
F7
0A
00
FC
01
01
05
08
04
FA
FC
FF
01
01
F6
F7
0A
FE
FA
FA
FD
FF
F6
00
FA
07
17
17
06
14
0E
1A
1A
F2
F7
02
16
15
0A
16
0A
0C
07
04
03
F9
04
FD
FA
FF
0C
0F
09
15
12
2A
15
21
29
10
FD
01
F0
EC
08
09
01
FE
04
0E
FE
F8
04
FA
FF
FF
01
EC
12
0F
17
0B
25
24
22
32
32
15
0B
16
02
07
01
13
02
08
1B
11
24
1E
F9
F9
FE
F7
FC
F8
17
10
FE
06
07
15
20
34
2A
17
FD
FC
04
FF
08
04
0C
0C
13
05
01
0B
19
0E
0E
04
03
0C
16
0E
E7
E9
08
08
14
0B
17
06
F5
02
F4
03
05
07
11
14
09
FF
07
08
21
22
0E
07
FE
01
F1
FC
F5
FC
FE
0B
08
06
0A
07
F9
F3
F9
FB
ED
F5
04
06
EC
F8
09
22
33
0B
22
FC
01
F4
FA
1D
0D
03
08
18
03
04
08
FD
FB
FF
01
F1
EB
F0
F6
F1
03
06
FD
0D
19
02
1A
F8
EF
0B
FD
14
06
FD
03
F4
06
03
06
FC
11
F1
FB
FA
F3
05
03
03
07
11
FD
02
1D
24
16
03
E8
05
F7
01
FF
FC
F6
08
F8
08
FE
FD
F2
F9
F4
F4
05
FE
10
0C
0C
0A
17
05
21
16
F7
00
F7
F9
F8
05
FD
06
F9
08
FE
0B
FD
04
FB
FA
F2
ED
FF
0C
0D
17
0C
0A
12
1A
10
0C
FA
FC
F3
E3
F8
08
FE
02
01
F7
08
F6
F4
F8
FC
FA
EF
F4
01
F7
10
FB
FF
F3
0F
1D
20
29
F7
F1
FB
F5
FD
FC
08
02
03
F2
06
03
FE
0C
04
06
FB
EA
F6
F2
07
FB
04
FD
03
1D
13
0B
EE
09
02
FB
FF
FF
F7
05
F7
0B
01
04
02
19
1A
07
04
F1
F4
04
00
FF
FB
00
03
0A
03
06
09
0A
03
EC
EF
FA
F1
F6
EB
F6
FC
F9
14
16
13
0C
0D
06
F3
EA
EB
FB
ED
F0
EA
FF
F9
F4
EB
0F
11
14
09
EC
02
FE
F8
FB
FD
F5
0D
0B
19
15
08
F6
EE
F4
EB
F6
E5
FB
F2
05
17
F7
EF
01
07
0B
09
F6
F3
FF
00
F2
05
FB
00
16
18
16
F3
EA
F1
EF
00
F0
FC
F8
0C
0C
12
EB
EF
04
01
14
0D
04
F9
04
09
01
F4
02
08
0B
06
FB
F2
ED
EE
F4
FC
FE
04
FC
0B
EB
DE
E2
0B
E9
0D
00
0F
14
0F
0B
00
FA
FA
FF
01
04
0C
F0
F9
01
FD
F0
FD
FD
FF
FF
08
F1
E0
DF
F1
F5
F8
FE
10
18
16
03
09
FF
FB
04
F5
FF
07
FE
03
06
09
10
03
01
0C
0C
1E
FC
FA
F5
ED
03
F9
FC
11
08
FC
02
16
0D
04
0B
F9
F5
06
08
12
07
11
0B
0C
11
0B
10
12
E0
07
F0
F6
F4
06
FF
0C
09
F0
04
04
FE
0C
04
09
0B
0D
14
18
09
26
15
0E
06
0A
14
0E
E0
F6
F9
F6
FA
0C
06
0F
08
E4
EC
04
FC
F5
03
0C
1A
19
09
0E
19
12
16
0C
09
FF
08
0F
F5
FD
05
FE
FB
00
1C
1E
0F
EF
E5
EF
FC
01
08
11
14
16
0E
0B
0D
0D
1E
16
04
08
0A
00
F6
04
F4
06
FD
04
03
16
01
EB
0F
09
0E
08
17
0C
1D
18
22
12
16
16
10
10
00
07
09
08
03
FA
F0
FB
FE
04
0C
F6
E5
F7
08
13
04
0D
18
0E
07
0F
05
03
12
08
10
0B
07
FB
02
0D
0D
F8
07
01
06
FD
0A
05
ED
F6
F0
FC
F8
E5
00
FE
00
FB
F3
F3
FC
0E
06
F8
01
F8
FE
F5
F9
F7
01
00
02
FA
08
FA
F4
FA
EA
FF
F8
E8
DE
F9
02
EF
D9
E1
F3
EC
EA
EB
F4
F1
FA
04
09
01
00
FC
04
09
0A
FA
F7
F6
06
04
07
FE
FB
05
05
F4
FA
04
FF
06
04
FF
F8
03
FF
FF
FE
06
F6
FD
03
00
F7
FE
FC
07
F8
F7
FA
FD
E5
02
01
FD
02
0F
10
0C
E3
FC
EC
FC
0B
04
F6
F6
07
09
02
08
FE
15
14
01
06
0A
FE
F5
F1
ED
FC
FB
FB
12
12
FE
0E
16
02
F7
F1
01
07
08
FD
FA
0A
02
06
15
03
E8
E4
F6
05
F1
F4
F9
15
FA
09
0A
20
17
19
10
1B
EF
E9
F2
E8
F4
05
04
06
04
11
25
F2
EA
EA
04
FF
ED
DF
FF
FD
F5
FA
15
15
14
19
1C
05
F9
EF
E8
E4
E3
FD
F3
01
F8
12
19
FF
F2
EB
E3
E4
D8
DF
0A
EE
F7
FC
0F
14
09
0C
FE
F7
F9
F4
ED
E7
E1
F2
F4
01
11
10
0B
0B
FA
E2
D0
E3
E4
EA
FD
F1
00
FA
F7
FC
01
F5
FE
F9
03
00
F8
F1
E6
05
ED
09
24
10
02
06
D7
DC
D6
E5
DE
E3
EC
EE
E5
06
EE
EF
F5
F0
F8
F1
F4
01
02
F3
F7
F7
F9
1A
1E
F2
02
F5
D5
E2
E2
DC
DD
DA
DD
D4
D2
DB
EB
F0
F4
F2
02
12
18
14
1D
12
03
FB
07
02
06
FD
FD
E3
E8
F6
D8
CF
E0
E2
D9
E4
D3
D0
FD
22
15
00
FA
FE
14
1D
11
1E
15
19
FA
0C
03
0B
FC
E3
EB
F3
F1
E6
E6
F3
EB
F7
EC
EB
14
34
16
04
02
09
0D
1B
0E
1C
2C
1D
F1
00
11
12
09
16
F9
F7
02
FC
FF
06
0E
EF
F5
12
34
22
22
1E
08
10
10
18
11
1C
23
10
02
F6
06
01
12
14
0C
05
1D
04
19
0F
01
0C
0D
18
1D
13
15
13
09
FF
EA
03
F1
E9
F3
1C
07
10
F6
02
2A
2D
26
15
05
13
11
04
0D
FE
FD
0E
00
0D
06
05
0F
F9
E8
E4
F2
EE
EB
08
03
FA
02
11
1B
2A
25
18
05
FD
0A
04
06
FF
F6
F7
FD
F4
0B
0E
15
00
FC
ED
ED
FE
D9
0F
FA
01
00
04
09
18
29
0C
F2
F4
E6
EB
E5
E7
E5
ED
F8
FC
10
1D
12
0F
F0
E4
F2
FD
EF
07
03
00
10
F6
0C
27
18
0E
F6
F7
E5
DB
E5
EE
E1
ED
00
07
12
16
07
01
F1
DF
DC
E7
F0
02
06
F8
10
EB
14
19
19
11
04
F2
EE
F1
F0
F7
F2
F1
04
11
17
0E
05
FB
D0
CA
C9
FF
06
13
11
18
15
00
05
0A
10
09
10
1B
0C
11
17
0A
09
FF
09
11
0B
F6
F1
ED
D5
D9
DB
05
14
07
09
01
13
11
07
01
0A
0E
0B
21
1F
14
15
11
12
09
0E
FB
F6
EE
E6
E3
CF
E9
F4
1C
18
17
0B
02
16
EF
F8
00
0B
0F
0B
0C
1A
12
23
1E
19
10
F3
F7
FA
EA
E3
DB
DB
EA
F7
0F
1F
12
08
0D
F1
F9
E8
EE
EE
FD
0D
FE
05
04
04
0F
05
FE
F0
F3
F7
F2
DB
DC
D3
C4
EF
09
0F
0C
FA
FC
FF
F2
ED
E9
F5
F9
FE
F8
FD
FD
FD
FF
FB
F9
FE
FA
F2
DC
DC
CB
C1
DA
EF
F9
05
20
05
F9
09
20
03
FF
06
FD
EF
F5
F7
FC
05
F6
F7
F2
DE
E4
ED
CF
C7
DA
DA
F3
F4
16
04
0A
07
02
06
17
22
FA
07
F0
EC
EC
EB
ED
E3
EF
F2
00
FF
E4
02
DF
DD
F8
0E
F4
EE
FD
08
03
FA
09
F8
0A
EA
FC
02
00
E6
D5
CF
CD
E2
F5
F2
E9
E5
E8
EA
E8
F5
F6
F3
FD
FB
F2
FE
06
07
01
04
0A
FE
F5
05
FE
FB
F4
E4
F0
F9
F4
F9
E2
E1
E0
F6
F6
F3
E3
ED
02
FB
F6
07
FD
03
09
01
07
07
06
0D
11
06
02
1D
15
20
08
14
1D
21
16
09
F0
05
01
05
03
F6
FA
02
FD
FF
03
FB
FF
FD
04
FC
F7
0A
07
08
01
03
09
FE
01
F5
05
04
0A
06
FA
F7
07
F7
01
FF
0A
0A
07
FA
FA
FA
FF
0E
11
12
14
13
09
0D
18
19
F7
FE
04
05
1D
22
20
1A
13
0B
FE
FB
00
FE
FB
01
FD
09
0D
07
13
18
0C
EF
FF
0E
FF
EA
CE
D9
F7
FF
07
0A
14
1A
0E
18
FD
FB
07
06
04
FF
F0
0E
12
18
01
00
04
08
08
16
03
1B
0C
F6
FB
01
02
FC
1B
17
04
25
1B
03
14
F7
01
FD
F8
F2
0E
F5
00
05
F9
07
02
03
07
F7
FD
03
FE
09
02
09
F6
F5
04
09
0F
02
16
1F
03
02
09
EC
F7
E5
E7
F9
FE
FB
0E
1A
10
16
17
13
FA
11
01
0A
02
03
F9
F5
06
26
17
17
04
F0
FF
E4
DD
DC
F8
F5
01
04
09
0B
08
18
0D
10
0D
03
0E
0A
04
03
02
FD
FE
19
07
0A
FD
E9
F7
E1
E6
F2
F7
E5
04
14
20
18
13
02
F9
03
FB
FC
07
04
FD
FA
FB
03
0A
17
F8
14
0E
EF
FD
E9
DF
F2
06
01
18
05
07
FE
FB
FF
04
F2
04
01
06
01
02
06
FC
EE
1F
17
0A
1A
05
E4
E9
F8
FB
F4
0B
0E
0D
13
18
0D
02
F9
FB
FD
12
0B
0D
06
FC
F6
F4
03
19
0B
05
FA
F9
F3
ED
F1
08
01
12
0E
19
11
F7
01
FC
07
0D
0C
06
08
05
01
00
FB
06
08
19
02
FA
FD
ED
F2
F8
01
03
FA
1D
16
0D
06
FD
02
02
11
14
09
05
09
F9
FA
09
08
0C
0C
1E
0F
23
0F
FF
EA
E4
0F
1A
06
18
0F
F3
FD
02
0F
03
09
0F
00
03
07
F2
0C
03
14
1A
24
1F
FE
FD
FE
03
0A
E0
0A
12
10
18
0E
08
FE
06
04
FD
F9
00
F2
EE
F1
F8
03
05
13
1C
21
0A
FA
E2
F6
F6
00
E0
FD
0F
15
0A
11
07
FE
FF
03
01
01
F3
E4
F3
F9
FF
05
1B
1B
24
0C
10
FE
D2
F4
FD
0A
F0
FB
0A
0E
0E
10
FC
FF
F0
EF
09
FB
E5
E7
E7
FE
FD
FD
1A
15
10
19
17
0F
D5
F5
F9
0A
EA
F8
FD
1D
0F
FE
06
F2
EC
F3
EF
E1
D8
EB
F8
F8
03
04
1C
F8
08
18
FC
0B
D5
F0
04
0E
EC
08
06
0A
0F
06
09
03
06
EF
EC
DB
E6
F5
F9
03
F2
0B
13
00
0E
0F
EF
EE
D4
0F
EF
F8
DC
04
F9
F5
0F
04
12
09
1C
06
FA
EE
F0
02
00
03
F3
0E
03
F4
FA
FB
F6
E8
D7
EE
06
03
07
11
F4
F9
F3
03
03
01
1B
1D
11
FD
EC
ED
F3
FF
10
12
0C
FD
02
FA
F0
DF
E4
F6
08
18
F5
EF
08
0A
FD
F7
00
10
1A
0A
04
06
FD
FC
FD
0C
02
0A
FB
F2
EC
F2
FB
0B
DF
F8
FC
EA
E2
F2
01
FF
08
06
0F
0B
0B
0E
04
02
FF
11
05
14
04
FC
FB
E3
EE
EC
F3
06
0C
FC
FD
FB
E6
FA
E5
F5
F4
FD
FF
0B
05
13
1A
1F
07
14
13
14
00
E6
EC
E0
F0
FF
ED
05
00
FA
09
FE
10
19
E9
FC
FB
FE
0A
07
F8
08
00
15
13
08
1B
0F
05
FD
EE
F2
0D
21
0E
0E
F6
06
01
F6
FD
14
F2
03
02
01
13
05
FF
03
01
06
00
12
10
03
0B
04
13
F9
FA
1C
06
02
F8
FA
FF
07
12
FE
F8
0A
FF
02
FA
FD
FD
FF
E9
F3
FC
FD
F4
05
FB
0A
1A
FB
F4
FA
FC
0E
FE
04
F6
05
FD
02
0C
20
12
0D
05
00
07
07
02
F6
FD
FF
0B
0C
F6
FF
08
05
FE
0B
04
FF
04
FA
F8
02
06
FF
FE
E8
D9
FB
F9
E4
E7
F8
F8
E8
DD
02
01
F2
FD
07
00
EE
FC
F6
FC
08
F6
F6
09
08
03
06
FA
08
FF
09
FC
06
05
03
0D
FE
05
FF
0A
01
05
FF
03
0A
0A
00
FF
FE
06
FE
FC
02
F6
01
F9
FA
11
18
05
13
22
20
11
13
09
18
0C
12
16
22
1C
1B
0F
08
02
FB
01
FF
F7
F6
FF
04
05
FF
10
19
1A
F9
02
0A
FE
1A
0F
0D
1C
15
09
20
14
14
20
09
FF
F5
03
FE
F8
F9
0D
0D
1C
F7
0C
02
ED
FD
F8
EC
E9
FC
F0
FE
F2
FF
11
1A
05
06
0F
02
0D
F3
F7
FB
07
00
FD
F7
EB
EE
FB
0B
FE
F9
F5
F7
F1
EB
06
FD
02
17
0C
1B
06
10
06
15
F5
DC
FA
0F
01
F9
1A
F9
E7
EB
FE
FB
02
0F
07
F3
EE
E2
F5
04
04
16
0C
11
03
04
05
17
07
EA
0E
15
FA
F8
F2
F2
D8
F0
F8
10
12
FF
FE
ED
EF
E9
F8
03
F7
01
07
03
FE
EA
01
FD
04
FC
11
07
FA
FE
F8
E1
DA
EC
ED
00
12
03
FE
F1
E8
F5
10
0B
10
FD
F3
F2
F2
F8
FB
F9
FA
FE
08
09
03
F7
F1
EC
D0
DF
EC
03
0D
08
EE
EB
EA
F2
FA
0D
FF
F4
E2
E3
DC
E8
E7
E2
ED
F3
F3
F2
03
FD
FD
FF
CC
C9
FB
17
17
18
FA
EC
F4
E6
FA
13
08
ED
EB
D4
DC
ED
DC
DD
F5
F0
EB
EC
04
06
00
F1
DF
E1
F6
0D
1E
19
FD
E0
EE
EE
FD
0E
06
FB
E5
E2
EF
F1
E4
E5
F9
FC
FF
EC
09
09
F7
E2
D6
D6
F8
0C
09
0E
F6
DC
EA
F4
04
0E
02
07
FB
01
08
0A
FD
09
0A
01
F7
EF
08
FF
F5
F8
D8
E5
04
11
00
FF
01
FA
EE
F9
FE
0A
08
0A
00
F4
FA
FE
0F
03
11
FA
F7
E8
08
04
EF
FF
EC
EA
04
05
0B
FE
0D
F6
0A
F7
FA
FF
02
04
00
F1
F8
04
10
02
FC
F2
F7
FC
0C
F7
FC
01
FF
05
FE
FC
0D
08
03
0B
FF
EF
EF
FA
FB
F8
ED
EF
08
0C
12
F1
FA
FE
F2
FB
FE
01
03
11
0C
07
FA
0D
FF
01
02
0A
09
FE
F3
F3
F6
ED
F9
EF
07
09
09
F6
F4
0E
FB
F5
01
08
07
02
F1
F8
E0
F2
FC
04
0A
04
07
FA
F4
FA
FB
E8
ED
F4
0C
12
00
04
06
27
F9
EC
FF
04
F6
FC
E1
E4
EB
E9
01
FD
15
14
F9
01
FE
EC
FB
E5
EF
03
19
07
FE
03
0E
FF
ED
FF
F1
03
ED
F6
EF
E8
DC
F1
FB
09
12
02
02
05
02
EF
F4
F5
FF
F6
07
0C
F7
05
0A
18
E0
F2
0D
05
0C
13
F6
E4
F6
F7
FE
FE
0E
1E
1B
0C
01
FC
09
00
01
F8
0F
FB
10
07
11
1E
FE
00
07
11
05
17
1B
FB
EB
FE
F1
04
06
18
20
07
0F
03
0E
0C
0A
08
0A
00
0F
07
04
29
0F
0A
FE
F3
E7
06
20
0C
F6
0C
07
08
08
11
15
18
19
0C
0F
05
FB
F8
12
1F
0C
FF
17
11
0E
FA
0C
03
E5
FA
26
17
08
06
0F
02
F2
FF
04
16
08
11
09
07
07
08
0A
0F
FE
01
EF
0B
15
02
FE
FC
F5
04
17
14
F9
F4
0B
00
F8
FE
0D
0E
02
04
00
02
02
09
F3
E6
E6
ED
F0
11
13
FF
04
09
FB
F0
FA
FA
E9
E5
FB
06
06
08
06
00
F6
F9
F5
0D
07
07
F9
DA
EB
EF
08
01
09
F8
01
F9
03
00
F7
F1
FA
F2
E7
EE
DE
EC
F0
E9
DD
F4
E6
00
07
01
FF
F3
F2
00
07
0B
F9
FD
09
FF
FE
FB
F9
F7
00
00
F0
F2
FB
F5
F4
FC
F9
00
F9
FB
EA
F0
F4
ED
F4
00
EF
FD
06
F6
F8
09
F9
FA
F8
01
06
04
07
01
F9
F8
F8
FD
FA
11
07
F5
F1
FC
F7
EA
E4
02
08
06
07
01
09
FF
03
FD
01
FF
00
06
F9
05
F6
05
FB
F5
09
F9
07
FD
05
FB
F8
09
06
FA
F6
02
04
03
FD
02
01
F7
F7
FF
FB
FF
FE
04
F6
08
F4
02
04
0F
16
10
EB
E9
E6
EA
F7
F2
FC
02
F8
06
F7
F6
F6
10
15
06
FF
01
FD
08
0C
F9
0F
0D
FC
08
0C
F1
E8
C8
B7
CB
E6
F2
FD
11
09
FE
0A
F8
04
0D
07
F3
F6
F6
F6
0B
FA
02
13
07
01
F9
00
F8
E9
E3
E6
E7
F1
E5
01
1A
04
0A
FB
00
EF
11
EC
EC
ED
DB
DF
F2
E0
06
04
DE
EB
E1
DA
DF
B9
C9
D3
D2
EA
EC
F1
11
03
F7
09
04
EB
FF
F5
E0
E0
DE
D6
EA
E3
DF
CB
B2
A6
B1
C4
D5
D9
EF
F8
F2
E8
E4
E5
EA
F9
03
02
04
00
FE
E2
D6
E9
E5
DC
E4
EE
D7
C0
BF
E8
E3
F9
14
0F
00
FB
F3
E8
E0
EC
03
03
00
FB
F4
F8
F2
E5
CA
E6
D7
EA
E1
DD
E0
EE
08
01
0A
1A
0B
0A
0F
04
09
FB
F1
F7
F4
F1
F2
F9
15
E8
DD
DA
C7
DC
E6
E7
EB
FF
0D
14
1D
16
14
16
11
0B
0E
07
09
08
0B
05
FE
02
14
06
08
D6
EA
D2
F1
01
F5
FF
0B
1E
17
23
27
1B
15
04
FE
FD
0B
0C
06
03
04
09
0B
0C
F2
FB
F1
D3
F7
FB
FF
0E
0E
08
09
10
17
1E
19
21
17
FF
ED
F8
07
0B
FE
06
13
18
1D
21
F3
EE
D2
FA
01
0C
0E
06
07
14
12
02
11
0C
0D
00
03
FB
F6
00
0A
10
08
13
1C
1B
28
22
14
FE
EE
0E
F0
15
03
16
01
FE
00
08
02
FE
01
09
FF
F0
01
FE
FF
FF
F3
FE
0A
EC
15
1B
08
F4
F1
F5
FD
FF
FB
0F
09
03
F7
0C
02
07
06
15
FA
ED
FB
FB
F0
E2
F2
06
F7
FC
06
20
06
0B
FC
E4
06
00
FA
FC
04
F6
06
00
08
0F
14
0D
11
07
FA
08
F6
FF
01
05
F4
01
00
1C
11
09
0A
E3
F0
00
01
09
FC
FE
00
0F
0B
07
01
FD
02
F8
09
06
F7
F9
F6
EB
F7
17
FD
0E
0E
F3
01
F1
DD
FF
0D
FC
02
0C
0C
0F
16
0C
07
FD
07
06
FE
FE
F5
F7
E6
FC
F5
F9
FA
19
19
F9
FB
EA
F8
F0
FE
06
07
05
17
11
09
14
02
02
FB
FD
F3
FD
F2
02
F9
FD
FE
0D
06
12
21
11
F3
EB
F4
F1
0D
0F
13
0E
0F
00
15
0F
03
07
FD
F4
FA
FC
07
07
06
1A
02
11
05
1B
19
FD
0C
EC
F1
FA
06
F9
05
F3
03
0A
F8
04
03
FC
07
F8
04
10
04
09
0B
1C
1D
FF
06
26
FF
F7
F2
00
F8
0B
0E
F8
E9
F9
F9
00
F8
F7
01
F6
F5
F5
09
09
10
FB
04
00
11
0A
16
0B
00
FB
09
14
0F
22
F6
F4
E8
DC
E6
E4
EC
F1
FC
FF
F4
F0
F7
F3
EE
FF
FF
FF
F6
08
08
F9
05
FA
03
08
13
15
EB
FE
E7
E6
EA
E1
E3
F0
E6
F7
E7
F4
F4
EC
DA
EE
E6
F4
00
15
07
E8
FC
FC
09
F6
15
05
04
E7
F5
F6
E2
E2
E9
E0
E4
E5
EC
F0
E6
E9
E3
E3
F0
0B
18
15
04
FF
F6
09
03
F8
EB
16
00
F7
F9
F7
EF
00
F2
F4
FA
E9
EF
F8
FF
EB
EE
FC
F6
04
1D
12
02
00
06
01
02
00
F1
F1
FB
F4
0A
F9
E5
F4
FD
F9
03
09
0F
11
04
0B
0A
05
17
0C
1C
12
FD
0C
F8
FC
06
FC
11
FD
11
0A
13
07
14
15
14
21
27
2B
17
29
1D
16
19
1E
03
03
FA
FD
FB
F8
08
F7
09
FF
01
FC
DB
FE
07
13
04
0E
19
0B
FE
1A
11
11
01
0B
0C
05
F4
FC
E9
F6
03
FE
FC
F8
02
F9
F7
F8
02
00
F9
FA
F6
F8
FD
FF
FE
0E
FD
07
00
02
F9
FC
00
FD
09
02
05
FE
02
03
FC
FC
FE
05
F5
FF
FE
FC
F7
FD
FA
F4
F4
04
03
1A
0D
FB
F8
F2
F8
05
F7
04
07
01
FF
05
04
00
01
04
FA
07
02
02
03
ED
F0
FA
ED
F8
0B
03
FF
FC
E3
F0
EA
F0
FE
00
0A
FA
07
FA
08
0E
0C
F0
FB
FE
FB
FC
FC
F4
14
FA
05
13
0D
07
1F
2D
17
0D
FE
0C
06
FF
F3
EF
08
09
0A
14
15
F4
E8
EB
F0
0B
FB
14
0E
0A
11
05
0E
11
0A
14
06
13
06
11
EB
F6
03
03
F8
FE
FE
0E
0C
03
0C
11
13
0F
06
FF
F9
03
12
0B
02
00
FD
F8
14
05
0B
09
F7
F0
06
03
FB
F8
05
FC
11
0F
0C
14
FD
F1
08
07
F1
F6
F9
F8
F4
FD
00
08
02
07
11
FD
00
FA
01
F9
F2
0A
19
15
1A
17
09
08
02
FF
05
F5
F1
F6
03
F0
F8
F1
FC
0D
15
0E
0B
0B
FE
F3
EC
03
FD
F9
23
FB
09
00
FD
03
14
FC
F8
FA
F3
09
02
F3
EB
F0
FD
20
20
15
11
18
F1
F5
F3
13
1B
10
0A
FC
1A
0B
13
06
01
0A
01
03
FF
FF
FC
F2
F1
EE
17
19
1F
1D
0B
14
F8
EE
08
20
09
02
11
0A
0B
06
0B
11
10
0C
06
0C
11
FB
FB
E7
ED
01
1F
13
1C
12
12
00
EC
E8
01
07
13
01
F7
00
16
01
09
0A
0B
04
0E
04
FE
FA
F7
F7
F3
FF
13
1C
1F
12
04
EA
E5
D1
FA
EF
F8
FA
13
FC
08
FE
FD
FC
F5
02
03
F0
F4
02
F7
01
FF
0C
1C
13
11
F7
FB
EB
D6
E4
FF
EC
07
09
0D
06
02
E9
EE
D9
ED
EF
EF
F4
E4
EE
FF
12
0B
17
10
04
EC
E5
D4
D8
E6
EA
00
F3
0C
FA
08
14
09
E9
E2
D2
CB
DB
E7
E5
F3
EE
F9
12
16
0E
0F
E9
E3
DC
E0
E1
E8
F8
F5
00
06
0B
05
FF
00
F4
DB
DC
D5
CD
E0
EB
F6
06
0C
10
08
0B
F4
F7
EA
E7
E9
F6
05
09
E6
F5
0A
08
0F
0F
06
F4
E5
DC
E3
F4
FD
FD
01
04
13
12
06
FA
01
08
04
FF
05
03
0A
0C
00
0B
06
FE
17
17
0F
FC
F0
EA
EC
FB
F5
FA
0D
16
0E
13
F4
FA
F9
F3
05
F6
0A
F5
0A
1D
F6
08
FE
12
17
28
0B
F1
03
F7
FB
FC
01
15
12
06
07
06
07
07
01
FD
0A
07
ED
F9
FD
0F
FE
0E
F9
06
FC
08
01
02
03
02
F9
0D
1A
0E
02
F8
01
F6
01
04
0B
01
0B
03
F0
FB
00
09
08
03
05
00
05
FF
0C
04
F4
0C
1D
07
FC
FC
F8
EE
F8
F9
F8
F2
FC
F7
00
FE
F7
F9
0C
16
05
05
F8
08
FA
25
1A
0E
08
18
09
0D
FD
02
03
FA
F7
FD
F2
F4
F9
F9
FC
F9
09
13
12
F7
F1
FC
F6
F7
09
28
01
09
1E
1B
12
11
FA
F5
0C
FA
0A
FB
FA
F9
E8
F8
06
02
0D
0F
0D
F6
07
F5
FA
0A
01
2A
F8
01
02
18
1C
00
03
0A
0C
00
0F
03
FD
FF
F7
03
FF
07
07
03
15
09
0E
FB
07
01
07
10
15
0C
FC
11
FD
08
FD
FF
01
0A
01
14
0A
0F
FE
FE
0C
0E
09
06
FE
FD
00
08
00
00
0A
EF
F2
05
FB
08
0B
0E
0E
09
0A
03
F7
FB
05
03
F4
FD
02
FE
DC
E2
E0
F6
FB
FE
FE
0A
FA
F9
F7
EC
F2
EF
0D
10
FC
F9
0F
03
0A
FB
F8
ED
02
02
02
11
E6
F3
0A
FE
05
03
FF
07
F8
FC
07
0B
0E
1F
11
10
01
0C
EA
05
0E
0F
14
17
FB
F8
FE
FB
EC
F8
FE
FD
00
FF
FC
F7
0A
06
01
F6
08
02
FD
0A
0A
09
06
07
01
0D
F9
09
FA
05
FF
F9
09
06
07
FA
FF
08
FD
FB
FC
09
FC
07
0B
FD
08
08
10
13
09
04
09
0D
00
FF
00
FE
04
FD
08
08
FE
FC
02
00
02
04
F8
FE
FE
0C
00
19
0A
02
15
18
22
19
07
08
11
0B
05
03
0C
07
0D
1B
15
1D
06
FD
FD
04
FB
00
EF
EE
F9
F5
07
10
15
13
14
04
F0
E8
EE
E7
E8
DE
EB
DE
EA
01
17
09
FB
FB
FE
00
04
FC
ED
EF
01
07
12
0E
10
18
FF
FF
EC
EE
F6
F3
F7
FC
03
0C
0F
0E
F9
EE
D5
D6
F1
02
06
06
0F
03
03
02
06
F5
F1
01
F5
E4
E0
E8
E8
07
04
14
11
08
21
1B
24
FD
F4
EB
F7
FA
05
01
0D
F3
E7
FA
F5
EF
F5
FC
E7
D9
DC
E8
E0
F8
0A
0E
14
12
0B
05
04
FC
06
08
04
F9
FD
EE
F3
E5
EA
EB
F1
FF
F0
F7
FB
ED
EA
E3
EC
10
1B
19
1C
10
0D
24
FE
E9
E6
03
08
07
04
FE
F9
EF
ED
E5
F8
E4
F2
EF
F6
EF
E4
CB
E7
1A
1C
0E
17
05
02
08
F1
E1
CB
EA
FB
FE
05
FD
01
F8
F3
DE
ED
ED
FB
FE
EA
E4
C8
CC
F5
28
0B
08
0C
FC
F7
F0
E3
D0
C6
EA
E8
0A
04
0C
06
06
F4
D8
E4
06
00
01
F9
E0
C6
D7
04
24
15
04
FB
01
ED
E1
E1
C5
D6
00
02
FD
1C
06
0D
0B
03
E1
ED
F9
EE
F4
E7
E5
E3
ED
11
0D
09
0E
07
01
F8
EE
E1
D9
EF
E8
F7
FF
00
FF
04
04
02
ED
F4
F2
F2
F5
ED
E2
F0
F9
0A
FB
FE
F5
05
F3
01
F9
EC
EF
F3
F8
F9
0A
FF
03
0F
0E
06
FD
F0
05
F1
00
FB
02
11
0F
FF
02
FB
02
04
FF
04
02
FF
05
01
0C
06
0A
EF
07
0D
11
0F
01
FF
01
09
0A
10
18
0F
13
02
0F
01
06
09
FA
01
FE
F7
0B
FF
0F
06
FA
08
0E
0F
06
02
F1
FD
15
13
0E
17
18
14
07
06
03
FF
07
02
F5
FC
F4
03
17
09
F1
19
FB
FF
02
01
FE
FD
EF
06
1A
11
18
0F
1A
07
02
01
0C
FC
09
13
FC
18
00
0A
10
0A
0A
15
FB
FF
07
09
F8
06
FE
06
0C
13
12
1C
15
0A
EC
EF
FB
F9
0A
F8
F4
F6
FB
F2
0B
0A
F1
09
09
F7
03
0E
10
FB
E8
0E
1A
19
18
06
06
F0
EA
E3
EB
F0
F7
FF
EA
F6
04
0F
05
1C
10
18
03
FA
08
07
10
FB
EC
05
0C
1B
1E
06
FE
F0
D2
E4
FA
F9
EC
EC
EF
FC
0E
02
10
1B
1F
0A
08
F0
0B
0D
0F
F2
EF
12
0C
19
0E
06
FE
DC
E0
EA
01
EE
F5
FE
F8
F2
F3
03
0A
0B
13
FF
02
FC
EE
0A
03
04
EC
FA
03
12
0D
F8
F3
F5
F3
ED
F2
07
F4
F9
FC
FE
FC
03
1C
08
17
FC
00
0D
F3
01
FE
0B
FB
FB
07
00
02
03
00
FD
FD
FC
07
02
FF
F3
FE
01
03
0D
09
08
09
07
09
02
03
FE
EC
FC
0B
F6
FC
F8
04
FD
0E
0D
04
0A
17
01
00
F0
F7
07
FB
FD
ED
01
04
F9
08
03
FD
F6
DA
ED
E6
E6
FA
FE
F9
01
18
05
FE
0A
12
0E
12
F5
F8
07
F0
DD
