D9
DA
14
D4
D2
14
0C
16
18
A8
D0
B9
F8
98
CC
E4
26
ED
FE
01
0A
1B
18
E9
EE
F0
14
1D
06
FD
D9
F9
0D
13
0D
D6
30
24
FF
09
17
F7
06
25
E9
FD
BF
D5
F0
F6
D4
09
A7
F3
1E
15
06
E3
19
BF
11
F2
1D
0F
01
2A
E2
0F
18
19
E2
1E
E6
1D
12
13
34
16
E5
CD
E3
ED
D3
2E
FC
2C
1C
D2
22
EE
1A
D8
17
CD
10
4D
F6
0D
E7
F4
C3
1F
BD
26
DB
E6
CD
C2
F1
D7
29
15
03
1A
1E
11
17
D6
FB
F1
1E
16
18
07
D3
DB
18
17
1A
EB
C5
EF
16
11
0C
19
F1
4C
13
09
DA
D1
C1
EC
DE
18
F9
E3
19
F3
FC
0B
40
06
F4
E6
EF
20
17
16
24
12
1E
1C
0B
21
01
D8
EA
08
04
15
DF
E8
07
96
2F
24
09
22
0C
B8
2E
E0
E3
24
E4
F9
31
02
CA
D0
CE
1D
13
FE
BE
15
EA
CE
C7
EB
0A
2D
21
34
A6
0D
05
F3
F7
1C
FB
18
D9
FF
F9
1C
37
FB
C3
1A
1A
DA
06
10
ED
1E
01
1F
0B
19
FE
D7
10
1F
0F
02
27
DF
0A
F5
0C
DF
20
16
0A
FC
F3
E4
1A
DF
E6
0D
E4
CB
2A
BC
E8
03
24
CC
06
34
19
08
F6
A2
05
1E
F8
17
E7
04
F1
C4
96
19
11
16
DF
FE
B1
E0
0D
C0
01
0F
81
C1
BB
23
BD
D0
16
CA
1C
26
03
AD
E8
17
16
17
D0
F7
47
D5
F0
14
1C
F5
26
F9
1E
D3
03
13
07
1D
0C
29
2A
F8
30
DC
F7
14
E8
ED
16
F1
CE
29
33
1C
17
0C
F8
F7
13
01
F4
BB
FF
0F
35
06
12
1F
DB
E3
1A
FF
10
EB
23
BE
FE
19
FF
11
CA
EC
1B
F7
25
0E
DE
A8
A1
09
26
22
B8
24
E8
F4
BA
20
EF
EA
14
EF
1C
16
14
02
FC
0D
FF
EA
E4
DF
DC
EA
2D
9A
42
0E
02
1A
B8
0E
FB
28
20
1E
EF
1B
E7
0A
18
A9
CB
14
D3
09
22
B6
05
C2
08
C2
E0
C3
F8
D4
05
ED
CC
ED
26
C0
EF
34
99
12
E0
FC
13
E9
D3
03
17
0C
FF
18
01
C9
D7
10
1B
02
FD
1C
03
43
DD
35
FE
EC
DB
10
2D
D7
17
0B
DE
0D
07
14
0E
CB
05
D5
C8
F6
1D
DE
10
0C
E4
1D
EB
21
08
FB
FD
26
FA
1C
24
E9
B4
EF
2C
F2
27
EF
EE
F3
03
1F
EC
D2
12
05
B2
E8
2B
17
FB
16
27
1A
FD
F5
20
C3
0A
04
0D
D9
CD
AD
07
07
D0
03
EB
D0
03
C5
08
EA
04
24
E6
0D
E6
00
18
D1
F1
14
11
E3
07
F1
10
D6
EC
DC
20
FD
E6
20
DE
D3
C8
12
09
CD
E8
FA
DF
1D
10
0C
15
20
E0
E6
19
A0
E3
F4
18
0B
E6
02
E6
1A
07
BF
01
94
EB
34
11
1A
F2
B3
1D
E8
D8
B9
10
11
93
E5
D4
16
E4
2D
EF
B6
15
F0
0E
E8
FA
26
F0
22
0C
12
22
00
0F
F1
01
03
9F
2C
C9
AE
20
1B
20
DB
16
23
0E
FD
EC
0C
27
D7
